#define TF_NUM_INPUTS_TIMESTEP 20
#define TF_NUM_INPUTS_SUBCARRIER 5
#define TF_NUM_INPUTS (20*5)
#define TF_NUM_OUTPUTS 2
#define TF_NUM_OPS 2122

const unsigned char tfModel[] = {
  0x1c, 0x00, 0x00, 0x00, 0x54, 0x46, 0x4c, 0x33, 0x14, 0x00, 0x20, 0x00,
  0x1c, 0x00, 0x18, 0x00, 0x14, 0x00, 0x10, 0x00, 0x0c, 0x00, 0x00, 0x00,
  0x08, 0x00, 0x04, 0x00, 0x14, 0x00, 0x00, 0x00, 0x1c, 0x00, 0x00, 0x00,
  0x80, 0x00, 0x00, 0x00, 0xd8, 0x00, 0x00, 0x00, 0xc4, 0x2e, 0x00, 0x00,
  0xd4, 0x2e, 0x00, 0x00, 0x14, 0xf9, 0x00, 0x00, 0x03, 0x00, 0x00, 0x00,
  0x01, 0x00, 0x00, 0x00, 0x04, 0x00, 0x00, 0x00, 0x1e, 0x9b, 0xff, 0xff,
  0x0c, 0x00, 0x00, 0x00, 0x1c, 0x00, 0x00, 0x00, 0x38, 0x00, 0x00, 0x00,
  0x0f, 0x00, 0x00, 0x00, 0x73, 0x65, 0x72, 0x76, 0x69, 0x6e, 0x67, 0x5f,
  0x64, 0x65, 0x66, 0x61, 0x75, 0x6c, 0x74, 0x00, 0x01, 0x00, 0x00, 0x00,
  0x04, 0x00, 0x00, 0x00, 0x9c, 0xff, 0xff, 0xff, 0x7a, 0x01, 0x00, 0x00,
  0x04, 0x00, 0x00, 0x00, 0x05, 0x00, 0x00, 0x00, 0x64, 0x65, 0x6e, 0x73,
  0x65, 0x00, 0x00, 0x00, 0x01, 0x00, 0x00, 0x00, 0x04, 0x00, 0x00, 0x00,
  0xd6, 0x9b, 0xff, 0xff, 0x04, 0x00, 0x00, 0x00, 0x07, 0x00, 0x00, 0x00,
  0x69, 0x6e, 0x70, 0x75, 0x74, 0x5f, 0x31, 0x00, 0x02, 0x00, 0x00, 0x00,
  0x34, 0x00, 0x00, 0x00, 0x04, 0x00, 0x00, 0x00, 0xdc, 0xff, 0xff, 0xff,
  0x7d, 0x01, 0x00, 0x00, 0x04, 0x00, 0x00, 0x00, 0x13, 0x00, 0x00, 0x00,
  0x43, 0x4f, 0x4e, 0x56, 0x45, 0x52, 0x53, 0x49, 0x4f, 0x4e, 0x5f, 0x4d,
  0x45, 0x54, 0x41, 0x44, 0x41, 0x54, 0x41, 0x00, 0x08, 0x00, 0x0c, 0x00,
  0x08, 0x00, 0x04, 0x00, 0x08, 0x00, 0x00, 0x00, 0x7c, 0x01, 0x00, 0x00,
  0x04, 0x00, 0x00, 0x00, 0x13, 0x00, 0x00, 0x00, 0x6d, 0x69, 0x6e, 0x5f,
  0x72, 0x75, 0x6e, 0x74, 0x69, 0x6d, 0x65, 0x5f, 0x76, 0x65, 0x72, 0x73,
  0x69, 0x6f, 0x6e, 0x00, 0x7e, 0x01, 0x00, 0x00, 0xe8, 0x2d, 0x00, 0x00,
  0xe0, 0x2d, 0x00, 0x00, 0x90, 0x2c, 0x00, 0x00, 0x78, 0x2c, 0x00, 0x00,
  0x64, 0x2c, 0x00, 0x00, 0x50, 0x2c, 0x00, 0x00, 0x34, 0x2c, 0x00, 0x00,
  0x20, 0x2c, 0x00, 0x00, 0x18, 0x2c, 0x00, 0x00, 0x10, 0x2c, 0x00, 0x00,
  0x00, 0x13, 0x00, 0x00, 0xb0, 0x0c, 0x00, 0x00, 0x00, 0x0c, 0x00, 0x00,
  0xf8, 0x0b, 0x00, 0x00, 0xf0, 0x0b, 0x00, 0x00, 0xe8, 0x0b, 0x00, 0x00,
  0xe0, 0x0b, 0x00, 0x00, 0xd8, 0x0b, 0x00, 0x00, 0xd0, 0x0b, 0x00, 0x00,
  0xc8, 0x0b, 0x00, 0x00, 0xc0, 0x0b, 0x00, 0x00, 0xb8, 0x0b, 0x00, 0x00,
  0xb0, 0x0b, 0x00, 0x00, 0xa8, 0x0b, 0x00, 0x00, 0xa0, 0x0b, 0x00, 0x00,
  0x98, 0x0b, 0x00, 0x00, 0x90, 0x0b, 0x00, 0x00, 0x88, 0x0b, 0x00, 0x00,
  0x80, 0x0b, 0x00, 0x00, 0x78, 0x0b, 0x00, 0x00, 0x70, 0x0b, 0x00, 0x00,
  0x68, 0x0b, 0x00, 0x00, 0x60, 0x0b, 0x00, 0x00, 0x58, 0x0b, 0x00, 0x00,
  0x50, 0x0b, 0x00, 0x00, 0x48, 0x0b, 0x00, 0x00, 0x40, 0x0b, 0x00, 0x00,
  0x38, 0x0b, 0x00, 0x00, 0x30, 0x0b, 0x00, 0x00, 0x28, 0x0b, 0x00, 0x00,
  0x20, 0x0b, 0x00, 0x00, 0x18, 0x0b, 0x00, 0x00, 0x10, 0x0b, 0x00, 0x00,
  0x08, 0x0b, 0x00, 0x00, 0x00, 0x0b, 0x00, 0x00, 0xf8, 0x0a, 0x00, 0x00,
  0xf0, 0x0a, 0x00, 0x00, 0xe8, 0x0a, 0x00, 0x00, 0xe0, 0x0a, 0x00, 0x00,
  0xd8, 0x0a, 0x00, 0x00, 0xd0, 0x0a, 0x00, 0x00, 0xc8, 0x0a, 0x00, 0x00,
  0xc0, 0x0a, 0x00, 0x00, 0xb8, 0x0a, 0x00, 0x00, 0xb0, 0x0a, 0x00, 0x00,
  0xa8, 0x0a, 0x00, 0x00, 0xa0, 0x0a, 0x00, 0x00, 0x98, 0x0a, 0x00, 0x00,
  0x90, 0x0a, 0x00, 0x00, 0x88, 0x0a, 0x00, 0x00, 0x80, 0x0a, 0x00, 0x00,
  0x78, 0x0a, 0x00, 0x00, 0x70, 0x0a, 0x00, 0x00, 0x68, 0x0a, 0x00, 0x00,
  0x60, 0x0a, 0x00, 0x00, 0x58, 0x0a, 0x00, 0x00, 0x50, 0x0a, 0x00, 0x00,
  0x48, 0x0a, 0x00, 0x00, 0x40, 0x0a, 0x00, 0x00, 0x38, 0x0a, 0x00, 0x00,
  0x30, 0x0a, 0x00, 0x00, 0x28, 0x0a, 0x00, 0x00, 0x20, 0x0a, 0x00, 0x00,
  0x18, 0x0a, 0x00, 0x00, 0x10, 0x0a, 0x00, 0x00, 0x08, 0x0a, 0x00, 0x00,
  0x00, 0x0a, 0x00, 0x00, 0xf8, 0x09, 0x00, 0x00, 0xf0, 0x09, 0x00, 0x00,
  0xe8, 0x09, 0x00, 0x00, 0xe0, 0x09, 0x00, 0x00, 0xd8, 0x09, 0x00, 0x00,
  0xd0, 0x09, 0x00, 0x00, 0xc8, 0x09, 0x00, 0x00, 0xc0, 0x09, 0x00, 0x00,
  0xb8, 0x09, 0x00, 0x00, 0xb0, 0x09, 0x00, 0x00, 0xa8, 0x09, 0x00, 0x00,
  0xa0, 0x09, 0x00, 0x00, 0x98, 0x09, 0x00, 0x00, 0x90, 0x09, 0x00, 0x00,
  0x88, 0x09, 0x00, 0x00, 0x80, 0x09, 0x00, 0x00, 0x78, 0x09, 0x00, 0x00,
  0x70, 0x09, 0x00, 0x00, 0x68, 0x09, 0x00, 0x00, 0x60, 0x09, 0x00, 0x00,
  0x58, 0x09, 0x00, 0x00, 0x50, 0x09, 0x00, 0x00, 0x48, 0x09, 0x00, 0x00,
  0x40, 0x09, 0x00, 0x00, 0x38, 0x09, 0x00, 0x00, 0x30, 0x09, 0x00, 0x00,
  0x28, 0x09, 0x00, 0x00, 0x20, 0x09, 0x00, 0x00, 0x18, 0x09, 0x00, 0x00,
  0x10, 0x09, 0x00, 0x00, 0x08, 0x09, 0x00, 0x00, 0x00, 0x09, 0x00, 0x00,
  0xf8, 0x08, 0x00, 0x00, 0xf0, 0x08, 0x00, 0x00, 0xe8, 0x08, 0x00, 0x00,
  0xe0, 0x08, 0x00, 0x00, 0xd8, 0x08, 0x00, 0x00, 0xd0, 0x08, 0x00, 0x00,
  0xc8, 0x08, 0x00, 0x00, 0xc0, 0x08, 0x00, 0x00, 0xb8, 0x08, 0x00, 0x00,
  0xb0, 0x08, 0x00, 0x00, 0xa8, 0x08, 0x00, 0x00, 0xa0, 0x08, 0x00, 0x00,
  0x98, 0x08, 0x00, 0x00, 0x90, 0x08, 0x00, 0x00, 0x88, 0x08, 0x00, 0x00,
  0x80, 0x08, 0x00, 0x00, 0x78, 0x08, 0x00, 0x00, 0x70, 0x08, 0x00, 0x00,
  0x68, 0x08, 0x00, 0x00, 0x60, 0x08, 0x00, 0x00, 0x58, 0x08, 0x00, 0x00,
  0x50, 0x08, 0x00, 0x00, 0x48, 0x08, 0x00, 0x00, 0x40, 0x08, 0x00, 0x00,
  0x38, 0x08, 0x00, 0x00, 0x30, 0x08, 0x00, 0x00, 0x28, 0x08, 0x00, 0x00,
  0x20, 0x08, 0x00, 0x00, 0x18, 0x08, 0x00, 0x00, 0x10, 0x08, 0x00, 0x00,
  0x08, 0x08, 0x00, 0x00, 0x00, 0x08, 0x00, 0x00, 0xf8, 0x07, 0x00, 0x00,
  0xf0, 0x07, 0x00, 0x00, 0xe8, 0x07, 0x00, 0x00, 0xe0, 0x07, 0x00, 0x00,
  0xd8, 0x07, 0x00, 0x00, 0xd0, 0x07, 0x00, 0x00, 0xc8, 0x07, 0x00, 0x00,
  0xc0, 0x07, 0x00, 0x00, 0xb8, 0x07, 0x00, 0x00, 0xb0, 0x07, 0x00, 0x00,
  0xa8, 0x07, 0x00, 0x00, 0xa0, 0x07, 0x00, 0x00, 0x98, 0x07, 0x00, 0x00,
  0x90, 0x07, 0x00, 0x00, 0x88, 0x07, 0x00, 0x00, 0x80, 0x07, 0x00, 0x00,
  0x78, 0x07, 0x00, 0x00, 0x70, 0x07, 0x00, 0x00, 0x68, 0x07, 0x00, 0x00,
  0x60, 0x07, 0x00, 0x00, 0x58, 0x07, 0x00, 0x00, 0x50, 0x07, 0x00, 0x00,
  0x48, 0x07, 0x00, 0x00, 0x40, 0x07, 0x00, 0x00, 0x38, 0x07, 0x00, 0x00,
  0x30, 0x07, 0x00, 0x00, 0x28, 0x07, 0x00, 0x00, 0x20, 0x07, 0x00, 0x00,
  0x18, 0x07, 0x00, 0x00, 0x10, 0x07, 0x00, 0x00, 0x08, 0x07, 0x00, 0x00,
  0x00, 0x07, 0x00, 0x00, 0xf8, 0x06, 0x00, 0x00, 0xf0, 0x06, 0x00, 0x00,
  0xe8, 0x06, 0x00, 0x00, 0xe0, 0x06, 0x00, 0x00, 0xd8, 0x06, 0x00, 0x00,
  0xd0, 0x06, 0x00, 0x00, 0xc8, 0x06, 0x00, 0x00, 0xc0, 0x06, 0x00, 0x00,
  0xb8, 0x06, 0x00, 0x00, 0xb0, 0x06, 0x00, 0x00, 0xa8, 0x06, 0x00, 0x00,
  0xa0, 0x06, 0x00, 0x00, 0x98, 0x06, 0x00, 0x00, 0x90, 0x06, 0x00, 0x00,
  0x88, 0x06, 0x00, 0x00, 0x80, 0x06, 0x00, 0x00, 0x78, 0x06, 0x00, 0x00,
  0x70, 0x06, 0x00, 0x00, 0x68, 0x06, 0x00, 0x00, 0x60, 0x06, 0x00, 0x00,
  0x58, 0x06, 0x00, 0x00, 0x50, 0x06, 0x00, 0x00, 0x48, 0x06, 0x00, 0x00,
  0x40, 0x06, 0x00, 0x00, 0x38, 0x06, 0x00, 0x00, 0x30, 0x06, 0x00, 0x00,
  0x28, 0x06, 0x00, 0x00, 0x20, 0x06, 0x00, 0x00, 0x18, 0x06, 0x00, 0x00,
  0x10, 0x06, 0x00, 0x00, 0x08, 0x06, 0x00, 0x00, 0x00, 0x06, 0x00, 0x00,
  0xf8, 0x05, 0x00, 0x00, 0xf0, 0x05, 0x00, 0x00, 0xe8, 0x05, 0x00, 0x00,
  0xe0, 0x05, 0x00, 0x00, 0xd8, 0x05, 0x00, 0x00, 0xd0, 0x05, 0x00, 0x00,
  0xc8, 0x05, 0x00, 0x00, 0xc0, 0x05, 0x00, 0x00, 0xb8, 0x05, 0x00, 0x00,
  0xb0, 0x05, 0x00, 0x00, 0xa8, 0x05, 0x00, 0x00, 0xa0, 0x05, 0x00, 0x00,
  0x98, 0x05, 0x00, 0x00, 0x90, 0x05, 0x00, 0x00, 0x88, 0x05, 0x00, 0x00,
  0x80, 0x05, 0x00, 0x00, 0x78, 0x05, 0x00, 0x00, 0x70, 0x05, 0x00, 0x00,
  0x68, 0x05, 0x00, 0x00, 0x60, 0x05, 0x00, 0x00, 0x58, 0x05, 0x00, 0x00,
  0x50, 0x05, 0x00, 0x00, 0x48, 0x05, 0x00, 0x00, 0x40, 0x05, 0x00, 0x00,
  0x38, 0x05, 0x00, 0x00, 0x30, 0x05, 0x00, 0x00, 0x28, 0x05, 0x00, 0x00,
  0x20, 0x05, 0x00, 0x00, 0x18, 0x05, 0x00, 0x00, 0x10, 0x05, 0x00, 0x00,
  0x08, 0x05, 0x00, 0x00, 0x00, 0x05, 0x00, 0x00, 0xf8, 0x04, 0x00, 0x00,
  0xf0, 0x04, 0x00, 0x00, 0xe8, 0x04, 0x00, 0x00, 0xe0, 0x04, 0x00, 0x00,
  0xd8, 0x04, 0x00, 0x00, 0xd0, 0x04, 0x00, 0x00, 0xc8, 0x04, 0x00, 0x00,
  0xc0, 0x04, 0x00, 0x00, 0xb8, 0x04, 0x00, 0x00, 0xb0, 0x04, 0x00, 0x00,
  0xa8, 0x04, 0x00, 0x00, 0xa0, 0x04, 0x00, 0x00, 0x98, 0x04, 0x00, 0x00,
  0x90, 0x04, 0x00, 0x00, 0x88, 0x04, 0x00, 0x00, 0x80, 0x04, 0x00, 0x00,
  0x78, 0x04, 0x00, 0x00, 0x70, 0x04, 0x00, 0x00, 0x68, 0x04, 0x00, 0x00,
  0x60, 0x04, 0x00, 0x00, 0x58, 0x04, 0x00, 0x00, 0x50, 0x04, 0x00, 0x00,
  0x48, 0x04, 0x00, 0x00, 0x40, 0x04, 0x00, 0x00, 0x38, 0x04, 0x00, 0x00,
  0x30, 0x04, 0x00, 0x00, 0x28, 0x04, 0x00, 0x00, 0x20, 0x04, 0x00, 0x00,
  0x18, 0x04, 0x00, 0x00, 0x10, 0x04, 0x00, 0x00, 0x08, 0x04, 0x00, 0x00,
  0x00, 0x04, 0x00, 0x00, 0xf8, 0x03, 0x00, 0x00, 0xf0, 0x03, 0x00, 0x00,
  0xe8, 0x03, 0x00, 0x00, 0xe0, 0x03, 0x00, 0x00, 0xd8, 0x03, 0x00, 0x00,
  0xd0, 0x03, 0x00, 0x00, 0xc8, 0x03, 0x00, 0x00, 0xc0, 0x03, 0x00, 0x00,
  0xb8, 0x03, 0x00, 0x00, 0xb0, 0x03, 0x00, 0x00, 0xa8, 0x03, 0x00, 0x00,
  0xa0, 0x03, 0x00, 0x00, 0x98, 0x03, 0x00, 0x00, 0x90, 0x03, 0x00, 0x00,
  0x88, 0x03, 0x00, 0x00, 0x80, 0x03, 0x00, 0x00, 0x78, 0x03, 0x00, 0x00,
  0x70, 0x03, 0x00, 0x00, 0x68, 0x03, 0x00, 0x00, 0x60, 0x03, 0x00, 0x00,
  0x58, 0x03, 0x00, 0x00, 0x50, 0x03, 0x00, 0x00, 0x48, 0x03, 0x00, 0x00,
  0x40, 0x03, 0x00, 0x00, 0x38, 0x03, 0x00, 0x00, 0x30, 0x03, 0x00, 0x00,
  0x28, 0x03, 0x00, 0x00, 0x20, 0x03, 0x00, 0x00, 0x18, 0x03, 0x00, 0x00,
  0x10, 0x03, 0x00, 0x00, 0x08, 0x03, 0x00, 0x00, 0x00, 0x03, 0x00, 0x00,
  0xf8, 0x02, 0x00, 0x00, 0xf0, 0x02, 0x00, 0x00, 0xe8, 0x02, 0x00, 0x00,
  0xe0, 0x02, 0x00, 0x00, 0xd8, 0x02, 0x00, 0x00, 0xd0, 0x02, 0x00, 0x00,
  0xc8, 0x02, 0x00, 0x00, 0xc0, 0x02, 0x00, 0x00, 0xb8, 0x02, 0x00, 0x00,
  0xb0, 0x02, 0x00, 0x00, 0xa8, 0x02, 0x00, 0x00, 0xa0, 0x02, 0x00, 0x00,
  0x98, 0x02, 0x00, 0x00, 0x90, 0x02, 0x00, 0x00, 0x88, 0x02, 0x00, 0x00,
  0x80, 0x02, 0x00, 0x00, 0x78, 0x02, 0x00, 0x00, 0x70, 0x02, 0x00, 0x00,
  0x68, 0x02, 0x00, 0x00, 0x60, 0x02, 0x00, 0x00, 0x58, 0x02, 0x00, 0x00,
  0x50, 0x02, 0x00, 0x00, 0x48, 0x02, 0x00, 0x00, 0x40, 0x02, 0x00, 0x00,
  0x38, 0x02, 0x00, 0x00, 0x30, 0x02, 0x00, 0x00, 0x28, 0x02, 0x00, 0x00,
  0x20, 0x02, 0x00, 0x00, 0x18, 0x02, 0x00, 0x00, 0x10, 0x02, 0x00, 0x00,
  0x08, 0x02, 0x00, 0x00, 0x00, 0x02, 0x00, 0x00, 0xf8, 0x01, 0x00, 0x00,
  0xf0, 0x01, 0x00, 0x00, 0xe8, 0x01, 0x00, 0x00, 0xe0, 0x01, 0x00, 0x00,
  0xd8, 0x01, 0x00, 0x00, 0xd0, 0x01, 0x00, 0x00, 0xc8, 0x01, 0x00, 0x00,
  0xc0, 0x01, 0x00, 0x00, 0xb8, 0x01, 0x00, 0x00, 0xb0, 0x01, 0x00, 0x00,
  0xa8, 0x01, 0x00, 0x00, 0xa0, 0x01, 0x00, 0x00, 0x98, 0x01, 0x00, 0x00,
  0x90, 0x01, 0x00, 0x00, 0x88, 0x01, 0x00, 0x00, 0x80, 0x01, 0x00, 0x00,
  0x78, 0x01, 0x00, 0x00, 0x70, 0x01, 0x00, 0x00, 0x68, 0x01, 0x00, 0x00,
  0x60, 0x01, 0x00, 0x00, 0x58, 0x01, 0x00, 0x00, 0x50, 0x01, 0x00, 0x00,
  0x48, 0x01, 0x00, 0x00, 0x40, 0x01, 0x00, 0x00, 0x38, 0x01, 0x00, 0x00,
  0x30, 0x01, 0x00, 0x00, 0x28, 0x01, 0x00, 0x00, 0x20, 0x01, 0x00, 0x00,
  0x18, 0x01, 0x00, 0x00, 0x10, 0x01, 0x00, 0x00, 0x08, 0x01, 0x00, 0x00,
  0x00, 0x01, 0x00, 0x00, 0xf8, 0x00, 0x00, 0x00, 0xf0, 0x00, 0x00, 0x00,
  0xe8, 0x00, 0x00, 0x00, 0xe0, 0x00, 0x00, 0x00, 0xd8, 0x00, 0x00, 0x00,
  0xd0, 0x00, 0x00, 0x00, 0xc8, 0x00, 0x00, 0x00, 0xc0, 0x00, 0x00, 0x00,
  0xb8, 0x00, 0x00, 0x00, 0xb0, 0x00, 0x00, 0x00, 0xa8, 0x00, 0x00, 0x00,
  0xa0, 0x00, 0x00, 0x00, 0x98, 0x00, 0x00, 0x00, 0x90, 0x00, 0x00, 0x00,
  0x88, 0x00, 0x00, 0x00, 0x68, 0x00, 0x00, 0x00, 0x04, 0x00, 0x00, 0x00,
  0x42, 0xa2, 0xff, 0xff, 0x04, 0x00, 0x00, 0x00, 0x54, 0x00, 0x00, 0x00,
  0x0c, 0x00, 0x00, 0x00, 0x08, 0x00, 0x0e, 0x00, 0x08, 0x00, 0x04, 0x00,
  0x08, 0x00, 0x00, 0x00, 0x10, 0x00, 0x00, 0x00, 0x24, 0x00, 0x00, 0x00,
  0x00, 0x00, 0x06, 0x00, 0x08, 0x00, 0x04, 0x00, 0x06, 0x00, 0x00, 0x00,
  0x04, 0x00, 0x00, 0x00, 0x00, 0x00, 0x00, 0x00, 0x00, 0x00, 0x0a, 0x00,
  0x10, 0x00, 0x0c, 0x00, 0x08, 0x00, 0x04, 0x00, 0x0a, 0x00, 0x00, 0x00,
  0x02, 0x00, 0x00, 0x00, 0x02, 0x00, 0x00, 0x00, 0x04, 0x00, 0x00, 0x00,
  0x06, 0x00, 0x00, 0x00, 0x32, 0x2e, 0x31, 0x35, 0x2e, 0x30, 0x00, 0x00,
  0xa2, 0xa2, 0xff, 0xff, 0x04, 0x00, 0x00, 0x00, 0x10, 0x00, 0x00, 0x00,
  0x31, 0x2e, 0x31, 0x34, 0x2e, 0x30, 0x00, 0x00, 0x00, 0x00, 0x00, 0x00,
  0x00, 0x00, 0x00, 0x00, 0xbc, 0x0d, 0xff, 0xff, 0xc0, 0x0d, 0xff, 0xff,
  0xc4, 0x0d, 0xff, 0xff, 0xc8, 0x0d, 0xff, 0xff, 0xcc, 0x0d, 0xff, 0xff,
  0xd0, 0x0d, 0xff, 0xff, 0xd4, 0x0d, 0xff, 0xff, 0xd8, 0x0d, 0xff, 0xff,
  0xdc, 0x0d, 0xff, 0xff, 0xe0, 0x0d, 0xff, 0xff, 0xe4, 0x0d, 0xff, 0xff,
  0xe8, 0x0d, 0xff, 0xff, 0xec, 0x0d, 0xff, 0xff, 0xf0, 0x0d, 0xff, 0xff,
  0xf4, 0x0d, 0xff, 0xff, 0xf8, 0x0d, 0xff, 0xff, 0xfc, 0x0d, 0xff, 0xff,
  0x00, 0x0e, 0xff, 0xff, 0x04, 0x0e, 0xff, 0xff, 0x08, 0x0e, 0xff, 0xff,
  0x0c, 0x0e, 0xff, 0xff, 0x10, 0x0e, 0xff, 0xff, 0x14, 0x0e, 0xff, 0xff,
  0x18, 0x0e, 0xff, 0xff, 0x1c, 0x0e, 0xff, 0xff, 0x20, 0x0e, 0xff, 0xff,
  0x24, 0x0e, 0xff, 0xff, 0x28, 0x0e, 0xff, 0xff, 0x2c, 0x0e, 0xff, 0xff,
  0x30, 0x0e, 0xff, 0xff, 0x34, 0x0e, 0xff, 0xff, 0x38, 0x0e, 0xff, 0xff,
  0x3c, 0x0e, 0xff, 0xff, 0x40, 0x0e, 0xff, 0xff, 0x44, 0x0e, 0xff, 0xff,
  0x48, 0x0e, 0xff, 0xff, 0x4c, 0x0e, 0xff, 0xff, 0x50, 0x0e, 0xff, 0xff,
  0x54, 0x0e, 0xff, 0xff, 0x58, 0x0e, 0xff, 0xff, 0x5c, 0x0e, 0xff, 0xff,
  0x60, 0x0e, 0xff, 0xff, 0x64, 0x0e, 0xff, 0xff, 0x68, 0x0e, 0xff, 0xff,
  0x6c, 0x0e, 0xff, 0xff, 0x70, 0x0e, 0xff, 0xff, 0x74, 0x0e, 0xff, 0xff,
  0x78, 0x0e, 0xff, 0xff, 0x7c, 0x0e, 0xff, 0xff, 0x80, 0x0e, 0xff, 0xff,
  0x84, 0x0e, 0xff, 0xff, 0x88, 0x0e, 0xff, 0xff, 0x8c, 0x0e, 0xff, 0xff,
  0x90, 0x0e, 0xff, 0xff, 0x94, 0x0e, 0xff, 0xff, 0x98, 0x0e, 0xff, 0xff,
  0x9c, 0x0e, 0xff, 0xff, 0xa0, 0x0e, 0xff, 0xff, 0xa4, 0x0e, 0xff, 0xff,
  0xa8, 0x0e, 0xff, 0xff, 0xac, 0x0e, 0xff, 0xff, 0xb0, 0x0e, 0xff, 0xff,
  0xb4, 0x0e, 0xff, 0xff, 0xb8, 0x0e, 0xff, 0xff, 0xbc, 0x0e, 0xff, 0xff,
  0xc0, 0x0e, 0xff, 0xff, 0xc4, 0x0e, 0xff, 0xff, 0xc8, 0x0e, 0xff, 0xff,
  0xcc, 0x0e, 0xff, 0xff, 0xd0, 0x0e, 0xff, 0xff, 0xd4, 0x0e, 0xff, 0xff,
  0xd8, 0x0e, 0xff, 0xff, 0xdc, 0x0e, 0xff, 0xff, 0xe0, 0x0e, 0xff, 0xff,
  0xe4, 0x0e, 0xff, 0xff, 0xe8, 0x0e, 0xff, 0xff, 0xec, 0x0e, 0xff, 0xff,
  0xf0, 0x0e, 0xff, 0xff, 0xf4, 0x0e, 0xff, 0xff, 0xf8, 0x0e, 0xff, 0xff,
  0xfc, 0x0e, 0xff, 0xff, 0x00, 0x0f, 0xff, 0xff, 0x04, 0x0f, 0xff, 0xff,
  0x08, 0x0f, 0xff, 0xff, 0x0c, 0x0f, 0xff, 0xff, 0x10, 0x0f, 0xff, 0xff,
  0x14, 0x0f, 0xff, 0xff, 0x18, 0x0f, 0xff, 0xff, 0x1c, 0x0f, 0xff, 0xff,
  0x20, 0x0f, 0xff, 0xff, 0x24, 0x0f, 0xff, 0xff, 0x28, 0x0f, 0xff, 0xff,
  0x2c, 0x0f, 0xff, 0xff, 0x30, 0x0f, 0xff, 0xff, 0x34, 0x0f, 0xff, 0xff,
  0x38, 0x0f, 0xff, 0xff, 0x3c, 0x0f, 0xff, 0xff, 0x40, 0x0f, 0xff, 0xff,
  0x44, 0x0f, 0xff, 0xff, 0x48, 0x0f, 0xff, 0xff, 0x4c, 0x0f, 0xff, 0xff,
  0x50, 0x0f, 0xff, 0xff, 0x54, 0x0f, 0xff, 0xff, 0x58, 0x0f, 0xff, 0xff,
  0x5c, 0x0f, 0xff, 0xff, 0x60, 0x0f, 0xff, 0xff, 0x64, 0x0f, 0xff, 0xff,
  0x68, 0x0f, 0xff, 0xff, 0x6c, 0x0f, 0xff, 0xff, 0x70, 0x0f, 0xff, 0xff,
  0x74, 0x0f, 0xff, 0xff, 0x78, 0x0f, 0xff, 0xff, 0x7c, 0x0f, 0xff, 0xff,
  0x80, 0x0f, 0xff, 0xff, 0x84, 0x0f, 0xff, 0xff, 0x88, 0x0f, 0xff, 0xff,
  0x8c, 0x0f, 0xff, 0xff, 0x90, 0x0f, 0xff, 0xff, 0x94, 0x0f, 0xff, 0xff,
  0x98, 0x0f, 0xff, 0xff, 0x9c, 0x0f, 0xff, 0xff, 0xa0, 0x0f, 0xff, 0xff,
  0xa4, 0x0f, 0xff, 0xff, 0xa8, 0x0f, 0xff, 0xff, 0xac, 0x0f, 0xff, 0xff,
  0xb0, 0x0f, 0xff, 0xff, 0xb4, 0x0f, 0xff, 0xff, 0xb8, 0x0f, 0xff, 0xff,
  0xbc, 0x0f, 0xff, 0xff, 0xc0, 0x0f, 0xff, 0xff, 0xc4, 0x0f, 0xff, 0xff,
  0xc8, 0x0f, 0xff, 0xff, 0xcc, 0x0f, 0xff, 0xff, 0xd0, 0x0f, 0xff, 0xff,
  0xd4, 0x0f, 0xff, 0xff, 0xd8, 0x0f, 0xff, 0xff, 0xdc, 0x0f, 0xff, 0xff,
  0xe0, 0x0f, 0xff, 0xff, 0xe4, 0x0f, 0xff, 0xff, 0xe8, 0x0f, 0xff, 0xff,
  0xec, 0x0f, 0xff, 0xff, 0xf0, 0x0f, 0xff, 0xff, 0xf4, 0x0f, 0xff, 0xff,
  0xf8, 0x0f, 0xff, 0xff, 0xfc, 0x0f, 0xff, 0xff, 0x00, 0x10, 0xff, 0xff,
  0x04, 0x10, 0xff, 0xff, 0x08, 0x10, 0xff, 0xff, 0x0c, 0x10, 0xff, 0xff,
  0x10, 0x10, 0xff, 0xff, 0x14, 0x10, 0xff, 0xff, 0x18, 0x10, 0xff, 0xff,
  0x1c, 0x10, 0xff, 0xff, 0x20, 0x10, 0xff, 0xff, 0x24, 0x10, 0xff, 0xff,
  0x28, 0x10, 0xff, 0xff, 0x2c, 0x10, 0xff, 0xff, 0x30, 0x10, 0xff, 0xff,
  0x34, 0x10, 0xff, 0xff, 0x38, 0x10, 0xff, 0xff, 0x3c, 0x10, 0xff, 0xff,
  0x40, 0x10, 0xff, 0xff, 0x44, 0x10, 0xff, 0xff, 0x48, 0x10, 0xff, 0xff,
  0x4c, 0x10, 0xff, 0xff, 0x50, 0x10, 0xff, 0xff, 0x54, 0x10, 0xff, 0xff,
  0x58, 0x10, 0xff, 0xff, 0x5c, 0x10, 0xff, 0xff, 0x60, 0x10, 0xff, 0xff,
  0x64, 0x10, 0xff, 0xff, 0x68, 0x10, 0xff, 0xff, 0x6c, 0x10, 0xff, 0xff,
  0x70, 0x10, 0xff, 0xff, 0x74, 0x10, 0xff, 0xff, 0x78, 0x10, 0xff, 0xff,
  0x7c, 0x10, 0xff, 0xff, 0x80, 0x10, 0xff, 0xff, 0x84, 0x10, 0xff, 0xff,
  0x88, 0x10, 0xff, 0xff, 0x8c, 0x10, 0xff, 0xff, 0x90, 0x10, 0xff, 0xff,
  0x94, 0x10, 0xff, 0xff, 0x98, 0x10, 0xff, 0xff, 0x9c, 0x10, 0xff, 0xff,
  0xa0, 0x10, 0xff, 0xff, 0xa4, 0x10, 0xff, 0xff, 0xa8, 0x10, 0xff, 0xff,
  0xac, 0x10, 0xff, 0xff, 0xb0, 0x10, 0xff, 0xff, 0xb4, 0x10, 0xff, 0xff,
  0xb8, 0x10, 0xff, 0xff, 0xbc, 0x10, 0xff, 0xff, 0xc0, 0x10, 0xff, 0xff,
  0xc4, 0x10, 0xff, 0xff, 0xc8, 0x10, 0xff, 0xff, 0xcc, 0x10, 0xff, 0xff,
  0xd0, 0x10, 0xff, 0xff, 0xd4, 0x10, 0xff, 0xff, 0xd8, 0x10, 0xff, 0xff,
  0xdc, 0x10, 0xff, 0xff, 0xe0, 0x10, 0xff, 0xff, 0xe4, 0x10, 0xff, 0xff,
  0xe8, 0x10, 0xff, 0xff, 0xec, 0x10, 0xff, 0xff, 0xf0, 0x10, 0xff, 0xff,
  0xf4, 0x10, 0xff, 0xff, 0xf8, 0x10, 0xff, 0xff, 0xfc, 0x10, 0xff, 0xff,
  0x00, 0x11, 0xff, 0xff, 0x04, 0x11, 0xff, 0xff, 0x08, 0x11, 0xff, 0xff,
  0x0c, 0x11, 0xff, 0xff, 0x10, 0x11, 0xff, 0xff, 0x14, 0x11, 0xff, 0xff,
  0x18, 0x11, 0xff, 0xff, 0x1c, 0x11, 0xff, 0xff, 0x20, 0x11, 0xff, 0xff,
  0x24, 0x11, 0xff, 0xff, 0x28, 0x11, 0xff, 0xff, 0x2c, 0x11, 0xff, 0xff,
  0x30, 0x11, 0xff, 0xff, 0x34, 0x11, 0xff, 0xff, 0x38, 0x11, 0xff, 0xff,
  0x3c, 0x11, 0xff, 0xff, 0x40, 0x11, 0xff, 0xff, 0x44, 0x11, 0xff, 0xff,
  0x48, 0x11, 0xff, 0xff, 0x4c, 0x11, 0xff, 0xff, 0x50, 0x11, 0xff, 0xff,
  0x54, 0x11, 0xff, 0xff, 0x58, 0x11, 0xff, 0xff, 0x5c, 0x11, 0xff, 0xff,
  0x60, 0x11, 0xff, 0xff, 0x64, 0x11, 0xff, 0xff, 0x68, 0x11, 0xff, 0xff,
  0x6c, 0x11, 0xff, 0xff, 0x70, 0x11, 0xff, 0xff, 0x74, 0x11, 0xff, 0xff,
  0x78, 0x11, 0xff, 0xff, 0x7c, 0x11, 0xff, 0xff, 0x80, 0x11, 0xff, 0xff,
  0x84, 0x11, 0xff, 0xff, 0x88, 0x11, 0xff, 0xff, 0x8c, 0x11, 0xff, 0xff,
  0x90, 0x11, 0xff, 0xff, 0x94, 0x11, 0xff, 0xff, 0x98, 0x11, 0xff, 0xff,
  0x9c, 0x11, 0xff, 0xff, 0xa0, 0x11, 0xff, 0xff, 0xa4, 0x11, 0xff, 0xff,
  0xa8, 0x11, 0xff, 0xff, 0xac, 0x11, 0xff, 0xff, 0xb0, 0x11, 0xff, 0xff,
  0xb4, 0x11, 0xff, 0xff, 0xb8, 0x11, 0xff, 0xff, 0xbc, 0x11, 0xff, 0xff,
  0xc0, 0x11, 0xff, 0xff, 0xc4, 0x11, 0xff, 0xff, 0xc8, 0x11, 0xff, 0xff,
  0xcc, 0x11, 0xff, 0xff, 0xd0, 0x11, 0xff, 0xff, 0xd4, 0x11, 0xff, 0xff,
  0xd8, 0x11, 0xff, 0xff, 0xdc, 0x11, 0xff, 0xff, 0xe0, 0x11, 0xff, 0xff,
  0xe4, 0x11, 0xff, 0xff, 0xe8, 0x11, 0xff, 0xff, 0xec, 0x11, 0xff, 0xff,
  0xf0, 0x11, 0xff, 0xff, 0xf4, 0x11, 0xff, 0xff, 0xf8, 0x11, 0xff, 0xff,
  0xfc, 0x11, 0xff, 0xff, 0x00, 0x12, 0xff, 0xff, 0x04, 0x12, 0xff, 0xff,
  0x08, 0x12, 0xff, 0xff, 0x0c, 0x12, 0xff, 0xff, 0x10, 0x12, 0xff, 0xff,
  0x14, 0x12, 0xff, 0xff, 0x18, 0x12, 0xff, 0xff, 0x1c, 0x12, 0xff, 0xff,
  0x20, 0x12, 0xff, 0xff, 0x24, 0x12, 0xff, 0xff, 0x28, 0x12, 0xff, 0xff,
  0x2c, 0x12, 0xff, 0xff, 0x30, 0x12, 0xff, 0xff, 0x34, 0x12, 0xff, 0xff,
  0x38, 0x12, 0xff, 0xff, 0x3c, 0x12, 0xff, 0xff, 0x40, 0x12, 0xff, 0xff,
  0x44, 0x12, 0xff, 0xff, 0x48, 0x12, 0xff, 0xff, 0x4c, 0x12, 0xff, 0xff,
  0x50, 0x12, 0xff, 0xff, 0x54, 0x12, 0xff, 0xff, 0x58, 0x12, 0xff, 0xff,
  0x5c, 0x12, 0xff, 0xff, 0x60, 0x12, 0xff, 0xff, 0x64, 0x12, 0xff, 0xff,
  0x68, 0x12, 0xff, 0xff, 0x6c, 0x12, 0xff, 0xff, 0x70, 0x12, 0xff, 0xff,
  0x74, 0x12, 0xff, 0xff, 0x78, 0x12, 0xff, 0xff, 0x7c, 0x12, 0xff, 0xff,
  0x80, 0x12, 0xff, 0xff, 0x84, 0x12, 0xff, 0xff, 0x88, 0x12, 0xff, 0xff,
  0x8c, 0x12, 0xff, 0xff, 0x90, 0x12, 0xff, 0xff, 0x94, 0x12, 0xff, 0xff,
  0x98, 0x12, 0xff, 0xff, 0x9c, 0x12, 0xff, 0xff, 0xa0, 0x12, 0xff, 0xff,
  0xa4, 0x12, 0xff, 0xff, 0xa8, 0x12, 0xff, 0xff, 0xac, 0x12, 0xff, 0xff,
  0xb0, 0x12, 0xff, 0xff, 0xb4, 0x12, 0xff, 0xff, 0xb8, 0x12, 0xff, 0xff,
  0xbc, 0x12, 0xff, 0xff, 0xc0, 0x12, 0xff, 0xff, 0xc4, 0x12, 0xff, 0xff,
  0xc8, 0x12, 0xff, 0xff, 0xcc, 0x12, 0xff, 0xff, 0xd0, 0x12, 0xff, 0xff,
  0xd4, 0x12, 0xff, 0xff, 0xd8, 0x12, 0xff, 0xff, 0xdc, 0x12, 0xff, 0xff,
  0xe0, 0x12, 0xff, 0xff, 0xe4, 0x12, 0xff, 0xff, 0xe8, 0x12, 0xff, 0xff,
  0xec, 0x12, 0xff, 0xff, 0xf0, 0x12, 0xff, 0xff, 0xf4, 0x12, 0xff, 0xff,
  0xf8, 0x12, 0xff, 0xff, 0xfc, 0x12, 0xff, 0xff, 0x00, 0x13, 0xff, 0xff,
  0x04, 0x13, 0xff, 0xff, 0x08, 0x13, 0xff, 0xff, 0x0c, 0x13, 0xff, 0xff,
  0x10, 0x13, 0xff, 0xff, 0x14, 0x13, 0xff, 0xff, 0x18, 0x13, 0xff, 0xff,
  0x1c, 0x13, 0xff, 0xff, 0x20, 0x13, 0xff, 0xff, 0x24, 0x13, 0xff, 0xff,
  0x28, 0x13, 0xff, 0xff, 0x2c, 0x13, 0xff, 0xff, 0x30, 0x13, 0xff, 0xff,
  0x34, 0x13, 0xff, 0xff, 0x38, 0x13, 0xff, 0xff, 0x3c, 0x13, 0xff, 0xff,
  0x40, 0x13, 0xff, 0xff, 0x44, 0x13, 0xff, 0xff, 0x48, 0x13, 0xff, 0xff,
  0x4c, 0x13, 0xff, 0xff, 0x50, 0x13, 0xff, 0xff, 0x54, 0x13, 0xff, 0xff,
  0x58, 0x13, 0xff, 0xff, 0x5c, 0x13, 0xff, 0xff, 0x60, 0x13, 0xff, 0xff,
  0x64, 0x13, 0xff, 0xff, 0x68, 0x13, 0xff, 0xff, 0x6c, 0x13, 0xff, 0xff,
  0x70, 0x13, 0xff, 0xff, 0x74, 0x13, 0xff, 0xff, 0x7a, 0xa8, 0xff, 0xff,
  0x04, 0x00, 0x00, 0x00, 0xa0, 0x00, 0x00, 0x00, 0x64, 0x99, 0xd7, 0x3e,
  0x2a, 0x3c, 0x80, 0x3e, 0x76, 0xb1, 0x86, 0xbe, 0x31, 0xee, 0xb0, 0xbe,
  0x1a, 0x0c, 0x6a, 0x3e, 0xdd, 0xb5, 0xd1, 0xbe, 0xeb, 0x70, 0xf7, 0x3e,
  0x04, 0xeb, 0xfd, 0xbe, 0x52, 0x1a, 0xa6, 0xbd, 0xf3, 0x7c, 0xd5, 0xbe,
  0x57, 0x6c, 0xdb, 0x3e, 0xf0, 0xb4, 0x0b, 0xbd, 0xbb, 0xcf, 0xac, 0xbe,
  0x13, 0xec, 0xb4, 0x3d, 0xe4, 0x48, 0xb3, 0x3e, 0xe0, 0x14, 0xb8, 0xbe,
  0x5d, 0x68, 0xa5, 0xbe, 0x14, 0x26, 0x33, 0x3e, 0xe5, 0x17, 0xc8, 0xbe,
  0x55, 0x74, 0x04, 0x3e, 0x36, 0xa6, 0x94, 0xbe, 0xe5, 0xe4, 0x0a, 0xbf,
  0x2e, 0x01, 0x39, 0x3e, 0x44, 0x3d, 0xf6, 0xbe, 0x20, 0xcf, 0xbf, 0xbe,
  0x74, 0x6a, 0x47, 0xbe, 0xc3, 0x4c, 0xc8, 0x3e, 0x68, 0x5d, 0x50, 0x3e,
  0x8d, 0xc6, 0x42, 0xbe, 0xd0, 0x20, 0x0b, 0xbf, 0x08, 0x54, 0x85, 0xbe,
  0xe9, 0x81, 0xf6, 0x3d, 0xbe, 0xf0, 0x8d, 0x3c, 0xe3, 0x7a, 0x10, 0x3d,
  0xbf, 0x02, 0x12, 0x3d, 0xb5, 0x30, 0x2f, 0x3d, 0x2c, 0x56, 0x93, 0xbe,
  0x50, 0xd7, 0xc2, 0x3d, 0x61, 0xd0, 0x97, 0x3d, 0xf1, 0xc2, 0xec, 0xbd,
  0x26, 0xa9, 0xff, 0xff, 0x04, 0x00, 0x00, 0x00, 0x40, 0x06, 0x00, 0x00,
  0x7d, 0xce, 0xf1, 0xbc, 0x86, 0x06, 0x59, 0x3e, 0x19, 0x4d, 0x07, 0x3c,
  0xa7, 0xcc, 0x34, 0xbe, 0xf4, 0xde, 0x6a, 0xbc, 0x6c, 0x75, 0x6d, 0x3b,
  0x0c, 0xeb, 0x55, 0xbe, 0x88, 0x46, 0xf0, 0xbd, 0x5b, 0xa1, 0xb7, 0x3d,
  0x5a, 0x1c, 0x53, 0x3e, 0x15, 0xa7, 0xb8, 0x3d, 0x63, 0x99, 0x25, 0x3e,
  0xb6, 0x7f, 0xd6, 0x3d, 0x1b, 0x25, 0xb6, 0xbd, 0x56, 0xf1, 0x34, 0x3e,
  0x6a, 0x16, 0xb1, 0xbc, 0x04, 0x52, 0x48, 0xbd, 0xe5, 0x8f, 0x42, 0x3e,
  0x1b, 0x0a, 0x79, 0x3e, 0xe3, 0x21, 0xf7, 0xbd, 0xd6, 0xa3, 0x63, 0x3e,
  0x48, 0x21, 0xf1, 0xbd, 0x32, 0x2f, 0x1b, 0xbe, 0x92, 0x3c, 0x74, 0xbe,
  0x11, 0x93, 0x81, 0x3e, 0xb3, 0x92, 0xc0, 0xbd, 0x75, 0x91, 0x81, 0xbe,
  0x6b, 0x09, 0x0a, 0x3e, 0xb0, 0x24, 0x4f, 0x3e, 0xbf, 0x63, 0x90, 0x3d,
  0x0b, 0x71, 0x6c, 0x3e, 0x83, 0x33, 0x62, 0x3e, 0x63, 0x9a, 0x26, 0xbe,
  0xc1, 0xef, 0x85, 0x3e, 0x38, 0xbe, 0x44, 0x3e, 0xdb, 0xe4, 0x0a, 0x3e,
  0x25, 0xb6, 0xc0, 0x3d, 0x89, 0x13, 0x94, 0xbe, 0x53, 0xf7, 0x31, 0xbd,
  0x94, 0x40, 0xca, 0xbd, 0xc8, 0x66, 0x6c, 0x3d, 0x6e, 0x9c, 0xf7, 0x3d,
  0x6f, 0xfc, 0xf4, 0x3d, 0xeb, 0x83, 0xf0, 0xbd, 0xb3, 0x1d, 0x7b, 0xbd,
  0xe3, 0xac, 0xda, 0x3d, 0xd7, 0xbf, 0xb4, 0x3d, 0xe8, 0x44, 0xd5, 0x3d,
  0x67, 0xd1, 0x46, 0xbe, 0x72, 0x61, 0x20, 0x3e, 0x7d, 0xd7, 0x00, 0x3e,
  0xa0, 0xb7, 0x7c, 0x3e, 0xcb, 0x60, 0xc5, 0xbb, 0xd4, 0xe8, 0x77, 0xbe,
  0x1a, 0x96, 0x16, 0x3e, 0xde, 0xa2, 0x4b, 0x3d, 0xe4, 0x8d, 0x18, 0xbe,
  0xbd, 0x1f, 0x5c, 0xbe, 0xe5, 0x56, 0x88, 0xbd, 0x68, 0x0a, 0x0b, 0xbd,
  0xd5, 0xb5, 0xa6, 0x3d, 0x32, 0xd9, 0x92, 0xbd, 0xee, 0x0e, 0x24, 0x3e,
  0x1c, 0xcf, 0xaf, 0x3d, 0x8e, 0xda, 0x9b, 0x3e, 0x1b, 0xe0, 0x31, 0xbe,
  0x24, 0xc9, 0x2c, 0x3e, 0xc8, 0x02, 0x41, 0xbe, 0x13, 0x10, 0xe3, 0xbd,
  0x36, 0xe8, 0x4c, 0x3e, 0x42, 0x39, 0x63, 0xbe, 0xde, 0x28, 0x88, 0xbd,
  0x31, 0x31, 0xfc, 0xbc, 0xcd, 0x70, 0x93, 0x3e, 0xe5, 0x85, 0x7b, 0x3d,
  0xc6, 0x34, 0x9b, 0xbd, 0xd6, 0xb5, 0x30, 0x3d, 0x54, 0xfe, 0x7d, 0xbd,
  0x96, 0x40, 0x2b, 0x3e, 0xa1, 0x6a, 0x29, 0x3e, 0xdf, 0xc4, 0xb1, 0x3d,
  0x56, 0xcb, 0x56, 0xbd, 0x0f, 0xaa, 0xca, 0xbc, 0xee, 0xa5, 0x33, 0xbe,
  0xc5, 0x91, 0xa7, 0xbd, 0x24, 0xeb, 0x07, 0x3d, 0xc8, 0x4a, 0xe1, 0xba,
  0x5f, 0x80, 0xcf, 0x3c, 0x79, 0x36, 0x18, 0xbe, 0x3d, 0x7c, 0x35, 0x3e,
  0x54, 0xc0, 0xdd, 0x3d, 0x27, 0xfa, 0x84, 0xbd, 0x4d, 0xc9, 0x3f, 0x3e,
  0x37, 0x59, 0x84, 0xbe, 0xc2, 0x8e, 0xdf, 0xbd, 0xd9, 0xed, 0x61, 0x3b,
  0x4d, 0x2a, 0x4b, 0x3d, 0x16, 0x5c, 0x14, 0x3e, 0x4e, 0xda, 0x7e, 0xbe,
  0xbc, 0xa9, 0xe0, 0x3d, 0x3a, 0x26, 0x54, 0x3d, 0x5d, 0x4e, 0xe4, 0x3c,
  0xe6, 0xde, 0x51, 0xbe, 0xa7, 0x71, 0xff, 0xbd, 0x29, 0x05, 0x24, 0xbc,
  0xab, 0xbe, 0xc7, 0x3c, 0x58, 0xd9, 0xf6, 0x3d, 0x31, 0x18, 0xf9, 0xbd,
  0x75, 0x6b, 0x12, 0xbd, 0x95, 0x22, 0x4f, 0xbd, 0xea, 0x88, 0x85, 0xbd,
  0x8e, 0x47, 0xa1, 0xbd, 0x5d, 0xb7, 0x25, 0xbd, 0x91, 0x3b, 0x4c, 0xbe,
  0xff, 0xa2, 0x82, 0xbe, 0x49, 0x73, 0xd8, 0x3d, 0x8f, 0x71, 0x29, 0x3e,
  0x3b, 0x29, 0x70, 0xbe, 0x84, 0x59, 0x3d, 0x3c, 0x52, 0x63, 0x1e, 0xbe,
  0x5f, 0x4a, 0x4b, 0xbe, 0xb0, 0x94, 0x98, 0x3d, 0xd0, 0x91, 0x15, 0x3e,
  0xf9, 0xd9, 0xeb, 0x3d, 0x3c, 0xaf, 0x76, 0x3e, 0xe2, 0xad, 0x96, 0x3e,
  0x6e, 0x13, 0xb9, 0xbd, 0x4a, 0x39, 0x0a, 0x3e, 0x33, 0x2c, 0x2d, 0xbe,
  0x4f, 0xe4, 0x25, 0xbe, 0x27, 0x00, 0x3a, 0x3d, 0x9b, 0x46, 0x80, 0x3e,
  0x63, 0x16, 0x6e, 0xbe, 0x39, 0x12, 0x53, 0x3e, 0xb7, 0x0f, 0x2c, 0x3e,
  0x3b, 0x96, 0x35, 0xbd, 0x17, 0x63, 0xe0, 0x3d, 0x32, 0x6e, 0x74, 0xbd,
  0xed, 0x47, 0xd6, 0xbd, 0xaa, 0xa3, 0x41, 0xbe, 0x37, 0xb5, 0x45, 0x3e,
  0x79, 0x9f, 0x2b, 0xbe, 0x82, 0x2f, 0x31, 0x3e, 0xcd, 0xb5, 0x02, 0xbe,
  0x03, 0x26, 0xe9, 0x3d, 0x1a, 0x4c, 0xa5, 0xbd, 0xf9, 0xc2, 0x8d, 0x3d,
  0x10, 0xa4, 0xc8, 0xbd, 0xd1, 0x15, 0x42, 0x3e, 0xf3, 0x55, 0xfd, 0x3d,
  0xf2, 0x35, 0x72, 0xbe, 0x36, 0xfb, 0x58, 0xbe, 0x91, 0x89, 0xea, 0xbd,
  0x63, 0x4e, 0xf3, 0xbd, 0x40, 0xc5, 0x09, 0xbe, 0xcf, 0xd2, 0xd4, 0x3b,
  0x00, 0xa9, 0x2a, 0x3e, 0x93, 0x42, 0x9d, 0xbd, 0x59, 0x23, 0xf0, 0xba,
  0x15, 0x85, 0x8d, 0x3e, 0xea, 0x09, 0x35, 0x3e, 0xaf, 0x6c, 0x69, 0x3d,
  0xda, 0xcb, 0x5a, 0x3e, 0x07, 0x2e, 0x33, 0xbd, 0x7b, 0x2c, 0x9d, 0x3d,
  0xc9, 0x59, 0x59, 0xbd, 0xbc, 0x62, 0xf0, 0x3c, 0xa3, 0x36, 0x28, 0x3e,
  0x49, 0xdc, 0x8c, 0xbe, 0xcd, 0x89, 0x8a, 0xbc, 0xd5, 0x4d, 0xe3, 0xbd,
  0x44, 0x6d, 0x61, 0xbd, 0x96, 0x6a, 0x23, 0xbe, 0x8e, 0x28, 0x74, 0x3e,
  0xa1, 0x00, 0x8f, 0x3e, 0x45, 0xf8, 0x78, 0xbe, 0x4b, 0x21, 0xdb, 0xbd,
  0x17, 0xf1, 0x9d, 0x3d, 0xd4, 0x46, 0x81, 0x3d, 0x36, 0x51, 0x5f, 0x3e,
  0xae, 0x42, 0x6c, 0x3e, 0x3a, 0x4d, 0x0d, 0x3e, 0x24, 0x11, 0xd8, 0xbc,
  0x39, 0x3e, 0x80, 0xbc, 0xa9, 0x33, 0x62, 0x3e, 0xc7, 0xee, 0x61, 0xbe,
  0x94, 0x6b, 0x61, 0x3b, 0x6b, 0x0c, 0x02, 0x3e, 0xaa, 0x5f, 0x24, 0xbe,
  0x1f, 0xe2, 0x50, 0xbe, 0xb8, 0x47, 0xec, 0xbc, 0x41, 0xf9, 0x54, 0xbe,
  0x17, 0x2b, 0x97, 0xbd, 0x66, 0x53, 0xb2, 0xbd, 0x6e, 0xa4, 0x0f, 0xbe,
  0x67, 0x38, 0x61, 0x3e, 0xbd, 0x6d, 0xb2, 0x3d, 0xad, 0x86, 0xff, 0xbc,
  0x41, 0xf3, 0x68, 0xbe, 0xda, 0x3d, 0x44, 0x3d, 0xec, 0x40, 0x7d, 0xbe,
  0x18, 0x28, 0x5b, 0xbe, 0x4e, 0x59, 0x89, 0x3d, 0xf1, 0xd7, 0xdb, 0xbd,
  0xb2, 0x1e, 0x27, 0xbe, 0x50, 0x65, 0xf6, 0xbc, 0x83, 0xa0, 0x83, 0x3e,
  0xd5, 0xec, 0x6f, 0xbb, 0x21, 0x74, 0x19, 0xbd, 0xaa, 0x0e, 0xca, 0x3d,
  0xea, 0x76, 0x1c, 0xbe, 0x18, 0xfe, 0xa3, 0xbd, 0x16, 0xc9, 0x9f, 0xbb,
  0x6a, 0x8c, 0x39, 0x3e, 0x96, 0xbb, 0x5b, 0xbe, 0x01, 0x2d, 0x51, 0x3e,
  0xdd, 0xb1, 0x41, 0x3e, 0x99, 0xe1, 0x44, 0xbd, 0x7b, 0x52, 0x37, 0xbe,
  0x34, 0xe6, 0x26, 0x3e, 0x25, 0x40, 0x9c, 0xbd, 0xbc, 0x20, 0x81, 0x3e,
  0xc0, 0x96, 0x22, 0x3e, 0xf1, 0xc2, 0x2b, 0x3e, 0x52, 0x43, 0x5e, 0xbe,
  0x78, 0x93, 0x36, 0x3e, 0x46, 0xfd, 0xd4, 0xbd, 0x9f, 0xf0, 0xeb, 0xbd,
  0xb7, 0xa6, 0xd8, 0x3c, 0xce, 0xb0, 0x7a, 0x3e, 0x55, 0xaa, 0x66, 0x3e,
  0xee, 0x3a, 0x0d, 0xbd, 0x22, 0x2f, 0x49, 0x3e, 0xe7, 0x28, 0x14, 0x3d,
  0x67, 0xdd, 0x69, 0xbe, 0x23, 0xe6, 0x0f, 0xbe, 0xfe, 0x13, 0x35, 0xbe,
  0x5e, 0x14, 0x24, 0xbe, 0x81, 0x9e, 0x1e, 0xbe, 0x4d, 0x57, 0x14, 0xbc,
  0x55, 0x5c, 0x14, 0xbd, 0xaa, 0xeb, 0x27, 0xbe, 0x3a, 0x9f, 0x06, 0xbe,
  0xc8, 0x42, 0x31, 0x3b, 0x83, 0x3a, 0x74, 0xbe, 0x78, 0x53, 0xd2, 0x3c,
  0x6a, 0xfd, 0x85, 0x3d, 0x0d, 0xde, 0x8d, 0x3d, 0xf9, 0x48, 0x6b, 0xbe,
  0x6c, 0x6a, 0x97, 0xbc, 0x1d, 0xb1, 0xd6, 0x3d, 0xd6, 0xeb, 0xc8, 0xbd,
  0xa3, 0xe4, 0x13, 0xbe, 0x57, 0xe4, 0x49, 0xbc, 0x6b, 0x91, 0x24, 0x3e,
  0xf9, 0x1b, 0x35, 0xbe, 0x80, 0x43, 0xac, 0x3b, 0xda, 0x59, 0x23, 0xbe,
  0x49, 0x5a, 0xd6, 0x3d, 0x5e, 0x9a, 0x59, 0xbe, 0xca, 0x00, 0x34, 0x3d,
  0xec, 0x1f, 0x2c, 0xbe, 0x44, 0xe2, 0x3c, 0x3e, 0xc5, 0x3c, 0x81, 0x3e,
  0xda, 0xe0, 0xf7, 0x3d, 0x24, 0x35, 0xfe, 0xbd, 0x23, 0x48, 0x2f, 0x3e,
  0x93, 0x06, 0x56, 0xbd, 0xcb, 0xe9, 0x58, 0x3e, 0xce, 0x26, 0x7e, 0x3e,
  0x4c, 0x82, 0x22, 0x3d, 0x1c, 0x1c, 0x00, 0xbe, 0x9b, 0x5f, 0x8b, 0x3e,
  0x1a, 0x7d, 0x6e, 0xbe, 0xf1, 0xe2, 0x51, 0xbe, 0xa8, 0x1e, 0x04, 0xbe,
  0xf2, 0x59, 0xe9, 0xbd, 0x09, 0x96, 0x26, 0x3d, 0xd7, 0xa0, 0x67, 0x3d,
  0xa8, 0x8c, 0xcb, 0xbd, 0x59, 0xe3, 0x53, 0x3d, 0x1b, 0xcf, 0x75, 0xbe,
  0x59, 0x70, 0xf5, 0x3d, 0xb8, 0x26, 0x85, 0xbe, 0xac, 0x14, 0x2d, 0x3e,
  0x86, 0x46, 0x0a, 0xbd, 0x7a, 0x47, 0x6a, 0x3e, 0x01, 0xe0, 0xad, 0xbd,
  0x84, 0x80, 0x17, 0x3d, 0xa0, 0x2f, 0xd9, 0xbd, 0x9b, 0xf5, 0xa3, 0xbd,
  0x50, 0xb2, 0xad, 0xbd, 0xf3, 0x47, 0xef, 0x3d, 0x12, 0x78, 0x1b, 0xbe,
  0x55, 0xc9, 0xae, 0x3c, 0x4a, 0x01, 0xc4, 0x3d, 0xda, 0x51, 0x8b, 0x3d,
  0xb1, 0xc1, 0x99, 0x3d, 0xca, 0xb6, 0x33, 0xbe, 0x65, 0xb0, 0x58, 0x3e,
  0x85, 0xf0, 0x96, 0xbd, 0xcb, 0xe3, 0x38, 0xbd, 0xd9, 0xa0, 0xfa, 0x3d,
  0x92, 0x28, 0x25, 0xbe, 0xc4, 0x30, 0x4a, 0xbe, 0xd8, 0x3d, 0xc8, 0xbd,
  0x22, 0x17, 0x3b, 0xbc, 0x02, 0xcd, 0x08, 0x3d, 0xf1, 0xda, 0x9f, 0x3d,
  0x04, 0x03, 0xea, 0x3d, 0x8b, 0x3c, 0x16, 0xbd, 0xf9, 0x47, 0x70, 0xbe,
  0xbd, 0x7c, 0x24, 0xbe, 0x48, 0xcd, 0xb7, 0x3d, 0x40, 0x24, 0x41, 0x3e,
  0x01, 0x8e, 0x40, 0xbd, 0xd8, 0x68, 0x67, 0xbe, 0x21, 0x59, 0xd2, 0x3d,
  0x06, 0x2f, 0x04, 0x3e, 0x3c, 0xda, 0x84, 0xbe, 0xae, 0xa2, 0x9d, 0xbc,
  0x76, 0x50, 0x5c, 0xbe, 0xda, 0xcb, 0xeb, 0xbc, 0x39, 0x16, 0x4b, 0xbe,
  0x79, 0xdf, 0x0c, 0xbe, 0x43, 0x96, 0x50, 0x3d, 0x54, 0x9d, 0xac, 0xbd,
  0x29, 0xe6, 0x72, 0x3d, 0x32, 0x75, 0x2f, 0xbe, 0xf1, 0xe0, 0xf2, 0x3d,
  0x36, 0xbe, 0x7d, 0x3e, 0xf2, 0x29, 0x52, 0x3d, 0xe8, 0x9a, 0x2a, 0x3d,
  0x1f, 0x79, 0xf9, 0xbc, 0x4d, 0x18, 0x32, 0xbe, 0xdc, 0xa3, 0x52, 0xbe,
  0x3c, 0x75, 0xb2, 0xbc, 0xbf, 0x37, 0x22, 0x3b, 0x2e, 0x6d, 0x0e, 0xbe,
  0xb7, 0x98, 0x53, 0x3e, 0xce, 0x33, 0x53, 0x3e, 0x9e, 0xa2, 0x84, 0x3e,
  0x82, 0xec, 0x4f, 0xbe, 0x93, 0xf6, 0x1b, 0xbd, 0x65, 0x0f, 0x68, 0xb9,
  0x0f, 0xce, 0x9c, 0xbc, 0xb0, 0xd3, 0x43, 0xbe, 0x92, 0xf0, 0x44, 0xbe,
  0xbb, 0x10, 0xf2, 0xbd, 0xb1, 0xa1, 0xe0, 0xbc, 0xeb, 0x4c, 0x94, 0x3d,
  0xdb, 0x57, 0x2a, 0x3e, 0x48, 0x05, 0x1d, 0x3e, 0xf5, 0x25, 0x1d, 0x3e,
  0xd7, 0x84, 0x31, 0x3e, 0x2c, 0xc2, 0x91, 0xbd, 0x69, 0x43, 0x3b, 0x3e,
  0xa1, 0xca, 0x6d, 0xbe, 0x5a, 0xea, 0x5b, 0x3d, 0xd3, 0x36, 0xac, 0xbd,
  0x7f, 0xe4, 0x7e, 0x3b, 0x63, 0x5a, 0xb3, 0x3d, 0x48, 0x96, 0x12, 0xbe,
  0x99, 0xc7, 0x53, 0xbe, 0xfb, 0xd1, 0x05, 0x3d, 0x6d, 0x49, 0x6f, 0xbe,
  0xda, 0xc3, 0xa3, 0x3d, 0xc2, 0x26, 0x85, 0x3d, 0x78, 0x8e, 0x8d, 0xbe,
  0x32, 0x24, 0x99, 0x3d, 0xf0, 0x67, 0x66, 0x3e, 0x2c, 0xd1, 0xfb, 0xbc,
  0x36, 0x02, 0x19, 0x3d, 0x5e, 0x83, 0x8d, 0x3e, 0xcf, 0x5a, 0xd2, 0xbd,
  0x9c, 0x01, 0x03, 0x3e, 0xe9, 0xa6, 0x0a, 0xbe, 0xd0, 0x54, 0x10, 0x3e,
  0x4f, 0xad, 0x70, 0xbe, 0x18, 0x7d, 0x77, 0x3d, 0x9a, 0x5c, 0x85, 0x3d,
  0xc8, 0x61, 0x78, 0x3e, 0x73, 0xe5, 0x4c, 0x3e, 0x85, 0x93, 0x30, 0xbe,
  0xdb, 0x82, 0xa3, 0xbd, 0x35, 0xff, 0x72, 0xbe, 0x0d, 0xc3, 0x70, 0xbe,
  0x6e, 0xa8, 0x7e, 0x3e, 0x75, 0xad, 0x05, 0x3e, 0xd6, 0x06, 0xd8, 0x3d,
  0x82, 0x42, 0x3a, 0xbe, 0x64, 0xd1, 0x44, 0x3e, 0xd2, 0xd6, 0x4d, 0x3e,
  0xb8, 0x06, 0x4a, 0xbe, 0x9f, 0xe2, 0x71, 0xbe, 0xe9, 0xfb, 0x37, 0xbe,
  0xda, 0x4c, 0xe7, 0x3d, 0x30, 0x1b, 0x22, 0xbe, 0xc5, 0x53, 0x47, 0x3e,
  0x3e, 0xd0, 0x0c, 0x3e, 0x72, 0xaf, 0xff, 0xff, 0x04, 0x00, 0x00, 0x00,
  0x00, 0x19, 0x00, 0x00, 0xe4, 0x1f, 0x56, 0xbd, 0xb6, 0x05, 0x39, 0xbe,
  0x8a, 0x9f, 0x1e, 0xbd, 0xaa, 0x7c, 0x92, 0xbd, 0x86, 0x04, 0x50, 0x3b,
  0xaa, 0x12, 0x91, 0xbd, 0x45, 0x65, 0xea, 0xbc, 0x95, 0x0e, 0x24, 0x3d,
  0xfd, 0xeb, 0xdd, 0xbd, 0xa3, 0xe5, 0x9c, 0x3d, 0x00, 0x4e, 0x52, 0x3d,
  0xd2, 0x77, 0x63, 0x3c, 0xbe, 0x42, 0x37, 0xbc, 0x9e, 0x50, 0x31, 0x3d,
  0x53, 0x0d, 0xbf, 0xbc, 0x0e, 0x70, 0xcd, 0xbc, 0x89, 0xed, 0x71, 0xbc,
  0xef, 0x82, 0xa9, 0xbd, 0x63, 0x1a, 0x08, 0xbc, 0xc5, 0xd8, 0xa2, 0x3d,
  0xb5, 0xab, 0x53, 0xbe, 0xb6, 0x86, 0x27, 0xbe, 0xc8, 0xb9, 0xaa, 0x3d,
  0x32, 0x9f, 0xd3, 0x3d, 0xef, 0x8b, 0x53, 0xbd, 0xec, 0xd3, 0xe1, 0x3d,
  0xd8, 0x24, 0xb9, 0xbd, 0xd0, 0x71, 0xf3, 0xbd, 0xad, 0x60, 0x1f, 0x3e,
  0x0a, 0xec, 0x5b, 0x3d, 0xb1, 0x0d, 0x84, 0xbe, 0xf5, 0xe0, 0x09, 0x3d,
  0x6f, 0xd2, 0xb1, 0x3d, 0x1f, 0xb9, 0x10, 0xbe, 0xf0, 0x47, 0x9a, 0x3d,
  0x6a, 0x44, 0x02, 0xbd, 0xc5, 0x26, 0xac, 0xbe, 0xd9, 0xb7, 0x4c, 0x3d,
  0x30, 0xb5, 0xd9, 0x3d, 0x64, 0x86, 0x22, 0x3e, 0x27, 0x33, 0x36, 0xbd,
  0xf3, 0xd2, 0x0e, 0x3e, 0x6d, 0x82, 0x3f, 0xbd, 0x56, 0x90, 0xaf, 0x3d,
  0x3a, 0x52, 0x43, 0x3e, 0x07, 0x7b, 0x18, 0x3e, 0x7f, 0xb2, 0x04, 0xbe,
  0xe9, 0x51, 0x84, 0x3d, 0x0b, 0xc9, 0x94, 0x3c, 0xef, 0x9a, 0x88, 0xbd,
  0x03, 0x33, 0x9d, 0xbd, 0xf5, 0xd0, 0x38, 0x3e, 0x7c, 0xc1, 0xc4, 0x3d,
  0x1a, 0x92, 0x07, 0x3e, 0x32, 0x0a, 0x36, 0x3d, 0xce, 0x03, 0x4e, 0xbe,
  0xab, 0x06, 0xa0, 0x3d, 0xd2, 0x26, 0xbc, 0x3d, 0xc9, 0x7d, 0xb9, 0x3d,
  0xbf, 0xb8, 0x6a, 0xbd, 0xbb, 0xca, 0xd8, 0xbd, 0xae, 0xbd, 0xdd, 0xbc,
  0x69, 0xe3, 0x23, 0x3e, 0x94, 0x2a, 0x7b, 0x3b, 0x28, 0xbb, 0x38, 0x3e,
  0x9f, 0x7f, 0x3f, 0xbd, 0xb1, 0xf1, 0x06, 0x3e, 0x61, 0x82, 0x74, 0x3d,
  0x28, 0xae, 0x62, 0x3c, 0x36, 0x26, 0x31, 0xbb, 0xb7, 0x0a, 0x1c, 0x3e,
  0xd8, 0x83, 0x94, 0x3d, 0x7e, 0xd4, 0x04, 0xbe, 0xc0, 0x94, 0x9a, 0xbc,
  0xed, 0x58, 0x6c, 0x3e, 0x0c, 0x34, 0x14, 0x3c, 0x21, 0xd6, 0xa1, 0x3d,
  0x40, 0x22, 0x15, 0x3d, 0x03, 0xd6, 0x86, 0xbd, 0xfe, 0x38, 0x1f, 0x3d,
  0x89, 0x7d, 0x6b, 0xbe, 0x0a, 0x85, 0x0d, 0x3a, 0x47, 0x47, 0x47, 0xbd,
  0x77, 0x8c, 0x2f, 0x3c, 0x42, 0x48, 0x31, 0xbe, 0xc2, 0x8d, 0x18, 0xbc,
  0xc7, 0x53, 0x40, 0x3d, 0x8e, 0x4f, 0xb4, 0x3d, 0x76, 0xd8, 0xd9, 0x3c,
  0x08, 0xf5, 0xfb, 0xbd, 0x54, 0xec, 0xf0, 0x3d, 0xcc, 0x6d, 0x88, 0xbd,
  0x4e, 0xd2, 0x10, 0xbe, 0x45, 0xe1, 0x7c, 0xbe, 0x0a, 0x08, 0xa5, 0xbd,
  0x5e, 0x8c, 0x15, 0xbb, 0x1c, 0x1f, 0xc9, 0xbd, 0x51, 0xbb, 0xdc, 0x3c,
  0x31, 0x07, 0x30, 0xbd, 0x78, 0x37, 0xc4, 0x3d, 0xb2, 0xf4, 0x97, 0xbe,
  0xe8, 0xaf, 0x4f, 0xbc, 0x02, 0x60, 0x86, 0xbd, 0xcc, 0x15, 0x49, 0x3e,
  0x70, 0x7a, 0xc0, 0xbd, 0x7d, 0xef, 0x1c, 0x3d, 0x13, 0x95, 0x03, 0xbd,
  0x73, 0xd2, 0x0c, 0x3e, 0x9b, 0xa5, 0x81, 0x3d, 0x5e, 0x58, 0x5e, 0xbd,
  0x84, 0xa3, 0x0d, 0x3c, 0x10, 0x4f, 0x6b, 0xbd, 0x5e, 0x60, 0xdc, 0x3d,
  0x35, 0xe4, 0xd6, 0x3d, 0x37, 0xf7, 0x28, 0x3e, 0xf2, 0xd7, 0x81, 0x3d,
  0x56, 0xca, 0x65, 0x3d, 0x8d, 0x54, 0xa5, 0xbc, 0x3e, 0x5b, 0xd5, 0x3c,
  0x94, 0xb4, 0xbc, 0x3c, 0x3b, 0x67, 0x93, 0x3c, 0xdb, 0x0a, 0x10, 0xbc,
  0xa8, 0x74, 0xe7, 0x3d, 0xdc, 0x72, 0x08, 0xbe, 0x6f, 0x8e, 0xe6, 0xbc,
  0x27, 0x9d, 0xc7, 0x3d, 0x10, 0x20, 0x10, 0xbe, 0x45, 0x03, 0xdc, 0xbd,
  0x32, 0xac, 0xef, 0xbc, 0x5c, 0xdd, 0xe4, 0x3c, 0xdf, 0x72, 0x26, 0xbe,
  0x4a, 0x8c, 0xa0, 0xbd, 0xc7, 0xd5, 0x2c, 0x3d, 0x69, 0x06, 0x16, 0xbe,
  0x81, 0xdb, 0xcc, 0x3d, 0xdc, 0x56, 0xfa, 0xbd, 0x0e, 0x01, 0x2b, 0x3e,
  0x2b, 0xda, 0xa3, 0xbb, 0x3e, 0xdf, 0x10, 0xbe, 0x59, 0x15, 0x0b, 0xbd,
  0x01, 0xab, 0x08, 0x3d, 0x74, 0x0a, 0x83, 0x3d, 0x4d, 0x43, 0x78, 0x3d,
  0x65, 0xcf, 0x80, 0xbe, 0x5c, 0xb7, 0x84, 0x3d, 0xdd, 0x29, 0xd6, 0xbd,
  0xaf, 0x6b, 0x43, 0xbe, 0x89, 0xde, 0x57, 0x3e, 0xd8, 0xde, 0xc1, 0xbd,
  0x3b, 0x99, 0x66, 0xbd, 0x32, 0xec, 0x61, 0xbd, 0x03, 0x53, 0x85, 0x3e,
  0x04, 0xfe, 0x2a, 0xbd, 0x7a, 0x02, 0xb7, 0xbb, 0x80, 0x6a, 0xb3, 0xbc,
  0x01, 0x75, 0xef, 0xbc, 0x64, 0x04, 0x8f, 0x3d, 0x92, 0x3c, 0x7d, 0x3c,
  0x96, 0x8e, 0xd5, 0x3d, 0x19, 0xdc, 0xbb, 0xbd, 0x29, 0x69, 0x0e, 0xbe,
  0x97, 0xba, 0x5c, 0x3e, 0xc2, 0xcc, 0xbc, 0x3c, 0xd2, 0x39, 0x37, 0xbd,
  0x1c, 0xeb, 0xd0, 0x3d, 0xe1, 0x7d, 0x0f, 0xbc, 0x4b, 0x90, 0x15, 0xbc,
  0x3b, 0x74, 0x3b, 0xbe, 0xdb, 0xab, 0x0f, 0xbe, 0x6b, 0x7c, 0x9c, 0x3d,
  0xc2, 0x50, 0x30, 0xbb, 0xcb, 0x96, 0x70, 0xbd, 0x2c, 0x97, 0x30, 0x3e,
  0xa9, 0xfc, 0x26, 0xbe, 0x50, 0x63, 0xd7, 0xbd, 0xd9, 0xda, 0xa7, 0xbd,
  0x45, 0xbe, 0x96, 0xbc, 0x6f, 0x7f, 0xa3, 0xbd, 0xf3, 0xa9, 0x8e, 0x3e,
  0x0e, 0x12, 0xcd, 0xbd, 0xfe, 0x68, 0x53, 0xbd, 0xbf, 0x4e, 0x1b, 0xbd,
  0x66, 0x05, 0x9a, 0xbe, 0x53, 0x70, 0x85, 0xbd, 0xd2, 0x1b, 0xc2, 0x3c,
  0xe7, 0xe7, 0xb4, 0xbd, 0x51, 0xca, 0xf2, 0xbd, 0x49, 0x6e, 0x9f, 0xbc,
  0x74, 0x01, 0x38, 0xbd, 0xfa, 0x68, 0x34, 0x3e, 0xb7, 0x42, 0xc1, 0x3d,
  0x54, 0x45, 0xb7, 0xbd, 0xbe, 0x5d, 0x01, 0xbe, 0xcc, 0xc9, 0x25, 0x3e,
  0x74, 0xe4, 0xe9, 0xbd, 0xef, 0x19, 0x9d, 0x3d, 0x17, 0x51, 0x94, 0x3b,
  0xf5, 0x47, 0x22, 0x3e, 0xae, 0x71, 0x1c, 0x3e, 0xa0, 0xc3, 0xac, 0xbd,
  0x1b, 0x5a, 0xf9, 0xbc, 0xf5, 0x53, 0x36, 0x3d, 0xff, 0xc9, 0xa6, 0xbd,
  0xb4, 0xf9, 0x8e, 0x3c, 0xca, 0x4e, 0x10, 0x3e, 0xb5, 0x22, 0xe1, 0x3d,
  0x3e, 0xe5, 0x9a, 0xbe, 0x83, 0xd0, 0x07, 0xbd, 0x88, 0xfe, 0x51, 0x3a,
  0x73, 0x20, 0xb0, 0x3d, 0x25, 0x94, 0xa5, 0xbc, 0xc8, 0x4c, 0xa1, 0xbd,
  0x48, 0xe2, 0x9a, 0xbc, 0xa3, 0x33, 0x4c, 0x3d, 0x3e, 0xae, 0xc3, 0x3d,
  0xbb, 0x8d, 0xff, 0xbd, 0xfa, 0x67, 0xbf, 0x3a, 0x04, 0x70, 0x2e, 0xbd,
  0xf6, 0xd3, 0x92, 0x3c, 0xac, 0x96, 0xa1, 0x3d, 0x84, 0x4b, 0xee, 0xbc,
  0xd3, 0xc3, 0x04, 0xbd, 0x76, 0x8e, 0x57, 0x3e, 0xa4, 0xc3, 0xe1, 0x3d,
  0x43, 0xaa, 0xf8, 0xbc, 0x47, 0x01, 0xf2, 0x3d, 0xa8, 0x1a, 0xbd, 0xbd,
  0x70, 0xf5, 0x5a, 0x3e, 0x8a, 0xc2, 0x87, 0xbd, 0xbe, 0x2c, 0x24, 0x3d,
  0x67, 0x66, 0x9d, 0x3d, 0xd4, 0x53, 0xf5, 0x3c, 0x50, 0x1f, 0x93, 0x3d,
  0xe5, 0x2f, 0xaa, 0x3c, 0xac, 0xa1, 0xa7, 0x3d, 0x66, 0xc6, 0x9a, 0xbe,
  0xc9, 0x3b, 0xa2, 0x3d, 0xaf, 0x03, 0x5b, 0xbe, 0xdb, 0xbb, 0xcd, 0x3d,
  0xd6, 0xe6, 0x86, 0xbd, 0xfc, 0xe9, 0x49, 0x3e, 0x4c, 0x84, 0x29, 0xbd,
  0x29, 0x4c, 0x67, 0xbd, 0xa2, 0xa2, 0x0f, 0x3e, 0xeb, 0x47, 0x30, 0xbe,
  0xa3, 0xf5, 0x01, 0x3e, 0x40, 0xb9, 0x9f, 0xbc, 0x96, 0x33, 0xdd, 0x3d,
  0xa3, 0x92, 0x37, 0xbe, 0x03, 0xc0, 0xaf, 0x3d, 0x29, 0xe2, 0x1a, 0x3c,
  0xcb, 0xe0, 0x97, 0xbd, 0x70, 0xca, 0x24, 0x3d, 0x12, 0x7d, 0xb3, 0xbc,
  0x2b, 0x4c, 0x41, 0x3e, 0xec, 0x2d, 0x33, 0x3d, 0x4a, 0xbe, 0x86, 0x3c,
  0x32, 0x2a, 0x87, 0x3d, 0x55, 0xd6, 0x86, 0xbc, 0x4b, 0x4d, 0x32, 0x3e,
  0x54, 0x85, 0x68, 0x3e, 0xa5, 0x41, 0x8c, 0x3d, 0x5e, 0x71, 0x3a, 0xbd,
  0x58, 0x35, 0x17, 0x3e, 0x66, 0xd1, 0x8e, 0x3d, 0x36, 0xfb, 0x21, 0x3e,
  0xbe, 0x5a, 0x6f, 0xbd, 0x50, 0x80, 0x9f, 0xbd, 0x64, 0x6f, 0xb0, 0x3c,
  0x37, 0x10, 0x3d, 0xbd, 0xe6, 0x9e, 0x6d, 0x3e, 0x4f, 0xcf, 0xf7, 0x3d,
  0xce, 0xff, 0x53, 0xbd, 0x66, 0xfb, 0x5f, 0x3d, 0x26, 0x58, 0x01, 0x3e,
  0x7e, 0xad, 0x22, 0xbd, 0x99, 0xfb, 0x55, 0xbe, 0xc9, 0xf7, 0xbf, 0xbd,
  0xae, 0x60, 0x95, 0x3d, 0x72, 0x81, 0x19, 0x3e, 0xd9, 0x88, 0xb0, 0x3d,
  0x85, 0x72, 0x8c, 0xbc, 0x96, 0x8e, 0xa0, 0xbd, 0x58, 0x3a, 0x28, 0xbd,
  0x1c, 0xd9, 0x07, 0x3e, 0x43, 0xfd, 0xe1, 0x3c, 0x65, 0xa8, 0xe2, 0xbc,
  0xae, 0xc6, 0x36, 0xbd, 0x5c, 0xd6, 0x27, 0xbe, 0xcf, 0x74, 0xb3, 0xbd,
  0x5c, 0xf4, 0xa8, 0x3c, 0x30, 0x4a, 0x2c, 0x3e, 0xa8, 0x38, 0x3b, 0x3d,
  0x3e, 0xd7, 0x66, 0xbc, 0x51, 0xa7, 0x1f, 0xbd, 0xf5, 0x60, 0x14, 0x3e,
  0xd5, 0xa8, 0x4f, 0xbe, 0xfb, 0xc5, 0xe3, 0x3d, 0x77, 0xa1, 0x18, 0xbe,
  0x5e, 0x7a, 0x30, 0xbd, 0x4d, 0x9a, 0x13, 0xbd, 0x6e, 0x2e, 0x67, 0x3e,
  0xf0, 0x4f, 0x96, 0x3d, 0xdf, 0x15, 0x94, 0x3d, 0x84, 0x5d, 0x1d, 0x3e,
  0x99, 0xf0, 0x2b, 0x3d, 0x13, 0xd2, 0x98, 0x3d, 0x50, 0xb9, 0x81, 0xbe,
  0x8a, 0x97, 0x17, 0x3e, 0x25, 0x2b, 0xf7, 0x3d, 0x1e, 0xfe, 0x09, 0xbd,
  0xf5, 0x36, 0x2f, 0x3d, 0x72, 0x06, 0x1d, 0xbe, 0x13, 0xfd, 0xad, 0x3c,
  0x27, 0x6e, 0xa1, 0xbc, 0xe4, 0xaf, 0x01, 0xbc, 0x3d, 0xa4, 0xc8, 0xbd,
  0x3a, 0x31, 0x6c, 0x3e, 0x7f, 0xb5, 0x04, 0xbe, 0x2e, 0x61, 0x0e, 0xbe,
  0x14, 0x3f, 0x46, 0x3d, 0xf1, 0xad, 0x90, 0xbe, 0x1b, 0x73, 0x9d, 0x3d,
  0x55, 0x78, 0xd8, 0x3b, 0xe4, 0x1d, 0x81, 0xbe, 0xc1, 0xd8, 0xc3, 0xbc,
  0x37, 0x03, 0x58, 0xbd, 0xba, 0x10, 0x9c, 0xbc, 0x26, 0xcb, 0xc3, 0xbd,
  0x36, 0xf7, 0x84, 0xbc, 0xb0, 0x7c, 0xab, 0xbd, 0xd7, 0x53, 0xff, 0x3d,
  0xd8, 0xbd, 0x3a, 0x3e, 0x74, 0x62, 0xab, 0x3d, 0x6b, 0x23, 0x0c, 0xbe,
  0xd4, 0x79, 0xde, 0xbd, 0xb9, 0x45, 0x81, 0x3b, 0xd8, 0xc2, 0xc3, 0x3c,
  0x92, 0xf5, 0xb3, 0xbd, 0x9c, 0x12, 0x13, 0x3e, 0x85, 0x9f, 0x2b, 0xbe,
  0xf8, 0x84, 0xf5, 0x3d, 0xaa, 0xa2, 0x20, 0x3d, 0x89, 0xde, 0x41, 0x3d,
  0x49, 0x7c, 0x43, 0x3e, 0x2b, 0x9a, 0x2f, 0xbd, 0xea, 0xf0, 0x2b, 0x3c,
  0xf4, 0xfa, 0xc4, 0xbd, 0xca, 0x92, 0xe2, 0xbc, 0x83, 0xa5, 0x63, 0x3d,
  0x82, 0x67, 0x38, 0xbe, 0x1f, 0x8e, 0xfd, 0xbc, 0x31, 0x7b, 0x86, 0xbd,
  0xa0, 0xd7, 0x0c, 0x3d, 0xda, 0x60, 0x09, 0x3e, 0xe0, 0x24, 0xf4, 0xbd,
  0xdf, 0x64, 0x99, 0xbd, 0x14, 0x5e, 0x9c, 0x3d, 0xfe, 0xef, 0x99, 0xbe,
  0x9e, 0x3e, 0x1f, 0x3d, 0x07, 0x09, 0x54, 0x3d, 0x93, 0x48, 0xd6, 0xbc,
  0x50, 0xec, 0x33, 0x3e, 0xa0, 0x52, 0x0d, 0xbe, 0xb3, 0x74, 0xa7, 0x3c,
  0x0c, 0x9c, 0x87, 0xbc, 0x7e, 0x0b, 0x38, 0xbd, 0xc7, 0x78, 0x6c, 0x3d,
  0x0a, 0x44, 0x1c, 0xbd, 0x23, 0xa1, 0x94, 0x3d, 0xa3, 0xf5, 0x59, 0xbd,
  0x2a, 0x83, 0x93, 0xbd, 0xc6, 0x52, 0x40, 0x3e, 0x43, 0x48, 0xa1, 0xba,
  0x6b, 0xcf, 0x2d, 0xbe, 0xcb, 0xac, 0xad, 0x3d, 0xce, 0x92, 0x33, 0xbe,
  0x49, 0xc6, 0x97, 0x3d, 0xb8, 0xf7, 0x84, 0x3d, 0x0f, 0x05, 0x4d, 0xbd,
  0x03, 0x46, 0xc4, 0xbd, 0xcb, 0x7c, 0xfc, 0x3a, 0x28, 0x52, 0xba, 0x3c,
  0xb1, 0x94, 0x36, 0xbe, 0xee, 0x4d, 0xfe, 0x3d, 0x8f, 0xdd, 0x91, 0xbc,
  0x48, 0x66, 0x2e, 0xbe, 0x5a, 0xde, 0x9d, 0x3d, 0x00, 0x3c, 0x7a, 0x3d,
  0x1a, 0xe5, 0x13, 0xbd, 0xb0, 0x91, 0x9d, 0x3d, 0xc5, 0x83, 0xc7, 0xbd,
  0xb6, 0xb5, 0xb7, 0xbc, 0xbb, 0x6f, 0xfe, 0xbc, 0x9e, 0x55, 0xdc, 0x3d,
  0xd0, 0x1a, 0xac, 0xbd, 0xce, 0x42, 0x3d, 0xbe, 0x01, 0x01, 0x10, 0xbe,
  0x5b, 0x73, 0x1a, 0xbe, 0xef, 0xdc, 0xdf, 0xbd, 0xe1, 0x37, 0x3d, 0x3d,
  0x38, 0xe1, 0xf4, 0xbd, 0x0b, 0xa1, 0x23, 0x3d, 0x1b, 0x13, 0x58, 0x3e,
  0xf5, 0xde, 0x84, 0x3d, 0x9b, 0xbe, 0xc6, 0xbd, 0xaf, 0x33, 0x28, 0x3e,
  0xec, 0x1c, 0x00, 0xbe, 0x02, 0x60, 0x28, 0xbe, 0x07, 0xa0, 0x67, 0x3e,
  0x46, 0xe7, 0xac, 0xbd, 0x14, 0xbf, 0x57, 0xbd, 0x60, 0xe5, 0x2a, 0x3c,
  0x0d, 0x0b, 0x18, 0xbd, 0xeb, 0x92, 0x5c, 0x3d, 0xfc, 0xca, 0xb3, 0x3a,
  0xcd, 0xfd, 0xa2, 0x3d, 0x4d, 0x19, 0x5c, 0x3e, 0x6b, 0x6d, 0x3a, 0x3c,
  0x87, 0xc7, 0xde, 0xbd, 0xa4, 0xb1, 0x93, 0xbd, 0x86, 0xe5, 0x8b, 0xbd,
  0x13, 0xba, 0x0f, 0xbe, 0x48, 0xf4, 0x94, 0x3d, 0x64, 0x1f, 0x72, 0xb9,
  0x54, 0xb5, 0x51, 0x3e, 0x6b, 0xfa, 0xd0, 0xbd, 0xa2, 0x10, 0xf5, 0xbd,
  0xfb, 0xad, 0x38, 0xbd, 0xea, 0x68, 0x0d, 0xbe, 0xe1, 0x3d, 0x99, 0x3d,
  0xe0, 0xdf, 0x2e, 0xbe, 0x91, 0x3f, 0x80, 0x3e, 0x7b, 0x78, 0xc4, 0xbd,
  0xf5, 0x0c, 0xe4, 0x3d, 0x8c, 0xe3, 0xa4, 0x3e, 0xc1, 0xcb, 0x1f, 0xbe,
  0xe6, 0x58, 0x5f, 0xbd, 0x6f, 0x79, 0x70, 0x3d, 0x5a, 0x0d, 0x88, 0xbd,
  0x12, 0x4a, 0x86, 0x3d, 0x39, 0x11, 0x13, 0x3e, 0xa1, 0x3a, 0x88, 0x3d,
  0x7c, 0x54, 0x66, 0x3d, 0xd4, 0x1f, 0x1b, 0xbd, 0x32, 0x72, 0x7e, 0xbd,
  0xbd, 0x40, 0x80, 0xbc, 0xf3, 0x1a, 0xcf, 0x3c, 0xb2, 0xb0, 0x05, 0xbd,
  0xb6, 0xf2, 0xa4, 0x3d, 0x5c, 0x59, 0x34, 0x3b, 0x4c, 0x26, 0xba, 0xbd,
  0x09, 0x14, 0xb4, 0x3e, 0x18, 0x66, 0x3a, 0xbe, 0x18, 0x00, 0x04, 0xbe,
  0x45, 0x26, 0x5d, 0xbd, 0x8d, 0x1b, 0xe6, 0xbc, 0x7b, 0x68, 0x35, 0x3d,
  0x92, 0x5c, 0x4d, 0xbe, 0x47, 0xf2, 0xba, 0x3d, 0x2d, 0x6a, 0xe3, 0x3d,
  0x02, 0x5b, 0xc5, 0xbd, 0x78, 0xe4, 0x72, 0x3c, 0xdb, 0x20, 0x1b, 0x3e,
  0x1e, 0x27, 0x5e, 0x3e, 0x32, 0x1f, 0xa5, 0x3c, 0x02, 0x02, 0x80, 0xbd,
  0x48, 0x2c, 0xf6, 0x3b, 0x02, 0x14, 0x3a, 0xbe, 0x04, 0x80, 0xa8, 0x3c,
  0x75, 0xc4, 0x9c, 0x3d, 0x44, 0xa2, 0x17, 0xbc, 0x10, 0x76, 0xa2, 0xbd,
  0xcd, 0x11, 0x75, 0x3b, 0xb2, 0x41, 0xb2, 0x3d, 0xae, 0x42, 0xc2, 0x3d,
  0x04, 0x93, 0x6e, 0xbd, 0x2f, 0xbf, 0x39, 0xbe, 0x64, 0x01, 0x38, 0xbd,
  0xed, 0x79, 0x2d, 0xbe, 0x68, 0x8b, 0xd3, 0xbd, 0x10, 0x4f, 0x1c, 0xbd,
  0x9b, 0xab, 0x14, 0x3c, 0x0e, 0x92, 0x2b, 0xbe, 0xec, 0x22, 0xc7, 0x3d,
  0xb9, 0xa5, 0x30, 0x3d, 0x49, 0xc9, 0x86, 0xbc, 0x33, 0x3c, 0x64, 0xbd,
  0x3c, 0x35, 0xb5, 0x3d, 0xd8, 0xce, 0x98, 0xbd, 0x04, 0xaa, 0x08, 0x3e,
  0xec, 0x52, 0xf9, 0xbd, 0x6b, 0x68, 0xbb, 0x3d, 0x64, 0x97, 0x48, 0x3e,
  0x46, 0x17, 0x1b, 0x3e, 0x80, 0x92, 0xb9, 0xbd, 0xa3, 0x92, 0x62, 0xbb,
  0x77, 0xad, 0xef, 0x3d, 0x15, 0x1a, 0xb7, 0xbd, 0x19, 0xe2, 0x0b, 0x3b,
  0x19, 0x86, 0x32, 0xbe, 0x19, 0x27, 0x86, 0xbe, 0xfe, 0xb1, 0xcc, 0xbd,
  0x88, 0xf7, 0x35, 0xbc, 0x87, 0x27, 0x75, 0x3c, 0xdd, 0xe4, 0x11, 0x3e,
  0xf9, 0xa9, 0x4e, 0xbd, 0xd1, 0xb7, 0xc5, 0xbd, 0x35, 0x69, 0x98, 0xbc,
  0x94, 0xc7, 0xc3, 0x3c, 0x31, 0xcb, 0x95, 0xbd, 0x34, 0x1a, 0x33, 0x3d,
  0xc4, 0x89, 0xc0, 0xbd, 0x15, 0x66, 0x72, 0x3c, 0x21, 0x5b, 0x13, 0xbd,
  0x95, 0x26, 0x22, 0x3d, 0x91, 0xa3, 0x96, 0x3d, 0x54, 0xb5, 0x8d, 0x3d,
  0x64, 0x3f, 0x9f, 0x3d, 0x48, 0x1a, 0xb4, 0x3c, 0x98, 0x2d, 0x75, 0xbc,
  0x26, 0x62, 0xa4, 0x3d, 0x57, 0x92, 0x9f, 0xbd, 0x5a, 0x46, 0xb5, 0xbd,
  0x77, 0xae, 0xdf, 0xbd, 0xbd, 0x92, 0x09, 0xbe, 0xff, 0x77, 0x7b, 0x3e,
  0xae, 0x71, 0x54, 0x3d, 0xdf, 0x3d, 0xfb, 0x3c, 0xae, 0xdd, 0x22, 0xbe,
  0x92, 0x5d, 0xb7, 0xbc, 0x14, 0x18, 0x46, 0x3c, 0x9f, 0x16, 0x0e, 0x3d,
  0x88, 0xb9, 0xed, 0x3d, 0x72, 0x33, 0x78, 0x3d, 0xd2, 0xca, 0xee, 0xbd,
  0x03, 0xb2, 0x8e, 0x3d, 0x71, 0x1c, 0x0b, 0xbe, 0x05, 0x55, 0x39, 0x3d,
  0xc7, 0xa0, 0x72, 0xbb, 0x62, 0xec, 0x57, 0x3e, 0x12, 0x6a, 0x03, 0xbc,
  0x49, 0xad, 0xa5, 0xbd, 0xd1, 0xf4, 0xbe, 0x3c, 0x66, 0xc1, 0xb8, 0x3d,
  0xad, 0xa7, 0x9f, 0x3d, 0xdb, 0x70, 0xd2, 0xbd, 0x3e, 0xb0, 0xea, 0x3d,
  0x31, 0x0c, 0x20, 0x3e, 0x7e, 0x4d, 0x43, 0xbd, 0x9e, 0xde, 0x0d, 0xbe,
  0x16, 0x11, 0xbd, 0x3d, 0x7d, 0x67, 0x99, 0xbc, 0x33, 0x11, 0xb4, 0xbd,
  0xb0, 0x48, 0x22, 0x3d, 0x09, 0xfa, 0x2b, 0xbe, 0xe1, 0xb9, 0xe1, 0xbb,
  0x08, 0x3b, 0x3f, 0x3e, 0x26, 0x8a, 0xab, 0x3d, 0xc0, 0xac, 0xdb, 0xbd,
  0xb2, 0x75, 0xa2, 0xba, 0x50, 0x6f, 0xf9, 0xbd, 0x00, 0x14, 0xe5, 0x3d,
  0x4f, 0x9f, 0x17, 0x3d, 0x84, 0x42, 0x58, 0x3c, 0xb4, 0x53, 0xbf, 0x3d,
  0x1d, 0xdc, 0xcf, 0xbd, 0x46, 0x4b, 0x98, 0x3d, 0xdc, 0x72, 0x42, 0xbe,
  0xcd, 0xc9, 0xef, 0xbb, 0x48, 0x68, 0x2c, 0x3e, 0x6f, 0xc3, 0x3f, 0x3a,
  0xc8, 0x05, 0x10, 0x3e, 0x96, 0x82, 0xc4, 0x3d, 0xfd, 0x05, 0x06, 0x3e,
  0x4a, 0xf8, 0xad, 0xbc, 0xea, 0xc8, 0x5e, 0xbd, 0x93, 0x4e, 0x83, 0x3b,
  0xb6, 0xe8, 0x0a, 0xbd, 0x5a, 0x41, 0x48, 0xbe, 0xa2, 0xe8, 0x98, 0x3c,
  0x35, 0x59, 0x33, 0xbe, 0x24, 0x5c, 0xf5, 0x3b, 0xca, 0xf9, 0x8c, 0x3c,
  0x35, 0x78, 0x37, 0x3c, 0x12, 0x43, 0x33, 0x3d, 0xea, 0x33, 0x7b, 0xbe,
  0xe8, 0xc5, 0xe1, 0xbb, 0x85, 0xff, 0x19, 0xbe, 0x58, 0x1b, 0x9c, 0xbd,
  0xb1, 0x54, 0xfb, 0xbd, 0xbc, 0xec, 0x06, 0xbd, 0xab, 0x3e, 0xd8, 0xbd,
  0xd0, 0xe3, 0x4d, 0xbe, 0xdc, 0x60, 0x04, 0xbd, 0xc3, 0xb9, 0x73, 0x3c,
  0xf0, 0xd8, 0x23, 0x3d, 0x71, 0x68, 0x31, 0x3d, 0x1b, 0x69, 0xa3, 0xbd,
  0x3b, 0xaa, 0x81, 0xbd, 0xc3, 0x87, 0xa9, 0x3d, 0xee, 0xeb, 0xcd, 0xbd,
  0x59, 0xd9, 0xb0, 0x3d, 0x84, 0x8e, 0x58, 0xbe, 0xbe, 0x63, 0xef, 0x3c,
  0x44, 0x36, 0x0f, 0xbe, 0x54, 0x11, 0xda, 0xbd, 0xa9, 0xed, 0x32, 0xbe,
  0x27, 0x60, 0x0e, 0x3e, 0xad, 0x88, 0x2c, 0x3d, 0x6b, 0x29, 0x85, 0xbd,
  0xf4, 0x83, 0xca, 0xbd, 0xd5, 0x8b, 0x5e, 0xbe, 0x26, 0x30, 0xdd, 0xbd,
  0xb9, 0x72, 0x3b, 0x3e, 0x8d, 0x5b, 0xc6, 0x3c, 0x53, 0xca, 0xf0, 0x3c,
  0x97, 0x82, 0x37, 0xbd, 0x75, 0x23, 0x9b, 0xbd, 0x9f, 0x2d, 0xbc, 0xbd,
  0xaa, 0xea, 0x60, 0xbd, 0x2d, 0xa5, 0xcf, 0x3c, 0x98, 0xb6, 0x08, 0xbe,
  0x0d, 0x66, 0xcb, 0xbc, 0xd9, 0x89, 0x0c, 0xbe, 0xd7, 0x3f, 0x94, 0x3e,
  0x0d, 0xc3, 0x91, 0x3d, 0x6d, 0x45, 0xec, 0xbc, 0x39, 0x2e, 0x98, 0x3d,
  0x41, 0xe6, 0x88, 0xbd, 0x44, 0xcb, 0x33, 0x3e, 0x0d, 0x53, 0xf7, 0xbd,
  0x62, 0x4a, 0x71, 0x3d, 0xf6, 0x7f, 0x21, 0xbe, 0xfc, 0x55, 0x86, 0x3d,
  0x17, 0x5b, 0x3b, 0x3d, 0x47, 0x60, 0xc9, 0x3d, 0xd0, 0x0f, 0x6c, 0xbd,
  0xd8, 0xe2, 0x9b, 0x3d, 0xfc, 0xc7, 0x03, 0x3e, 0x0d, 0x92, 0x07, 0x3d,
  0xdd, 0xe0, 0x36, 0xbe, 0x8d, 0x0b, 0x77, 0xbc, 0x13, 0x9e, 0x43, 0x3e,
  0x7f, 0x31, 0x24, 0x3e, 0x76, 0xd2, 0xda, 0x3d, 0xc1, 0x96, 0xa2, 0xbd,
  0x87, 0x43, 0x80, 0x3e, 0x8b, 0xdd, 0x6b, 0xba, 0xa0, 0x1c, 0xc3, 0xbd,
  0xd3, 0xa6, 0xe4, 0x3d, 0x8b, 0x53, 0x9a, 0xbd, 0xda, 0xec, 0x57, 0x3e,
  0x9b, 0x9f, 0xfc, 0xbd, 0x35, 0x01, 0x48, 0xbe, 0x23, 0x2e, 0x8f, 0xbd,
  0x78, 0xda, 0xb5, 0x3d, 0xd1, 0xf3, 0x61, 0x3e, 0xce, 0x8c, 0x97, 0xbc,
  0x3c, 0x05, 0xa2, 0xbc, 0x8d, 0x53, 0x3f, 0x3e, 0xf4, 0x11, 0x6d, 0x3e,
  0x76, 0x23, 0x63, 0xbd, 0x21, 0x51, 0x3a, 0xbd, 0x71, 0x53, 0xfb, 0xbd,
  0x00, 0xb5, 0x63, 0xb9, 0x5b, 0x3a, 0xaf, 0x3a, 0x72, 0x08, 0x09, 0xbe,
  0x1d, 0xe7, 0x06, 0xbe, 0xbd, 0x42, 0x0c, 0xbe, 0x8d, 0x6d, 0x02, 0xbe,
  0xa6, 0x79, 0x23, 0x3e, 0x73, 0x95, 0xef, 0xb8, 0xe3, 0xc3, 0x92, 0xbd,
  0xea, 0x14, 0x1a, 0xbc, 0x0f, 0x65, 0xa9, 0xbc, 0xda, 0xdb, 0x20, 0xbe,
  0xea, 0xb1, 0x82, 0xbd, 0xf9, 0x7c, 0x47, 0x3d, 0xbb, 0xf1, 0xd9, 0xbd,
  0x02, 0x04, 0x4b, 0xbd, 0xfe, 0xfd, 0x8d, 0x3d, 0x91, 0x77, 0xee, 0xbd,
  0xd3, 0xcd, 0x96, 0x3c, 0xe8, 0xc1, 0xdb, 0x3c, 0x0c, 0x26, 0x3e, 0xbd,
  0xb2, 0x7e, 0xac, 0xbe, 0x0c, 0xed, 0x2d, 0xbb, 0xe5, 0xf5, 0xce, 0xbd,
  0xa6, 0xb6, 0xc6, 0x3d, 0x29, 0x38, 0x16, 0x3e, 0xc5, 0x49, 0x8e, 0x3d,
  0x4d, 0x9d, 0x09, 0xbd, 0xaf, 0x44, 0x46, 0xbe, 0x90, 0xcc, 0xea, 0xbd,
  0x06, 0x11, 0x21, 0x3e, 0x90, 0x94, 0x61, 0x3e, 0x8c, 0xe9, 0x81, 0xbd,
  0x8f, 0x6d, 0x88, 0xbd, 0x7b, 0x80, 0x27, 0x3c, 0xce, 0x1a, 0xa9, 0xbd,
  0x9e, 0xf6, 0x10, 0x3e, 0xfe, 0x53, 0x22, 0xbe, 0x09, 0x43, 0x13, 0xbd,
  0x4b, 0xed, 0x30, 0x3e, 0x9f, 0x7b, 0xfe, 0x3d, 0x0f, 0x4b, 0x86, 0x3c,
  0x6d, 0xee, 0xb4, 0xbc, 0x4a, 0x81, 0x12, 0xbd, 0x8d, 0x48, 0xd8, 0x3d,
  0x87, 0x04, 0xeb, 0x3d, 0x09, 0xbd, 0xfa, 0x3c, 0x38, 0xda, 0xfa, 0xbc,
  0xd1, 0xb2, 0xec, 0xbd, 0xa7, 0x22, 0x43, 0xbe, 0x36, 0xb9, 0xa8, 0xbd,
  0x68, 0x6f, 0x85, 0x3d, 0xba, 0xd6, 0x7a, 0xbc, 0x8b, 0x75, 0x14, 0x3e,
  0x21, 0x56, 0x3e, 0x3e, 0x2e, 0xbc, 0xfc, 0x3d, 0xc1, 0x8f, 0x84, 0x3d,
  0x6c, 0xeb, 0x06, 0x3c, 0x01, 0x9e, 0x4d, 0x3d, 0x4f, 0xd2, 0xc8, 0xbc,
  0xe3, 0x46, 0x5a, 0x3e, 0x2f, 0x6c, 0x06, 0x3d, 0xc3, 0x15, 0xe7, 0x3d,
  0x6c, 0xd8, 0x98, 0x3d, 0xf7, 0x40, 0x43, 0x3d, 0x76, 0x67, 0x3d, 0xbe,
  0xa0, 0x39, 0x28, 0x3d, 0x08, 0x2f, 0xf6, 0x3d, 0x3b, 0xa9, 0x89, 0x3e,
  0xdb, 0x93, 0xf8, 0xbb, 0xf2, 0x0b, 0xea, 0xbd, 0xce, 0x91, 0x7d, 0xbd,
  0x91, 0xc4, 0x0c, 0x3e, 0x4b, 0xad, 0x84, 0x3d, 0x1d, 0x27, 0xb6, 0xbd,
  0x2a, 0x12, 0xb4, 0x39, 0x2d, 0x03, 0xaa, 0xbd, 0xcd, 0x93, 0xaf, 0x3d,
  0x42, 0x00, 0x03, 0x3e, 0x33, 0xec, 0xa7, 0xbb, 0x34, 0x13, 0xec, 0xbc,
  0x06, 0x6f, 0x43, 0x3d, 0x69, 0xd3, 0x7c, 0xbd, 0x6e, 0xb8, 0x9e, 0xbd,
  0x2a, 0x95, 0x55, 0x3e, 0xfc, 0xd5, 0x3f, 0x3e, 0x67, 0xfb, 0x1d, 0x3d,
  0x4a, 0xc8, 0x09, 0x3e, 0xfb, 0x14, 0xc0, 0x3d, 0xb8, 0x12, 0x1e, 0xbe,
  0xa6, 0x23, 0xbf, 0x3b, 0x7d, 0x42, 0xe8, 0x3d, 0x99, 0xf7, 0x1e, 0x3b,
  0x3e, 0x02, 0xb4, 0xbd, 0xd5, 0x37, 0xb2, 0xbe, 0xce, 0x54, 0xe9, 0x3c,
  0xad, 0x46, 0xba, 0xbd, 0x49, 0xb2, 0x1a, 0x3d, 0x78, 0xfd, 0x95, 0x3b,
  0x76, 0x42, 0xb6, 0xbd, 0xbf, 0xd2, 0xb0, 0x3c, 0xd7, 0x19, 0x9f, 0xbc,
  0xec, 0xac, 0x5d, 0xbd, 0x8f, 0xb1, 0x86, 0xbd, 0xd7, 0xf5, 0xe9, 0x3c,
  0xbf, 0x6f, 0x37, 0xbe, 0x3a, 0xf0, 0x8d, 0xbe, 0x7a, 0xb4, 0x1b, 0x3e,
  0x38, 0x55, 0xad, 0x3d, 0x39, 0x68, 0x8d, 0x3d, 0x5f, 0x47, 0x53, 0xbd,
  0xc2, 0xd8, 0x90, 0x3c, 0xb1, 0x5b, 0x64, 0xbb, 0x2e, 0x13, 0xe7, 0x3d,
  0xb4, 0x55, 0x84, 0xbc, 0xe9, 0x85, 0x9f, 0x3d, 0x8a, 0x78, 0x03, 0xbe,
  0x15, 0xa4, 0xec, 0xbd, 0x44, 0x53, 0x2d, 0x3e, 0x04, 0x42, 0x5c, 0xbd,
  0x84, 0x1d, 0x88, 0xbd, 0x7a, 0xb3, 0xa7, 0xbd, 0x09, 0xa6, 0x9d, 0x3d,
  0x00, 0x9d, 0xff, 0xbd, 0xfd, 0x29, 0x76, 0xbe, 0x25, 0xfc, 0x7a, 0xbe,
  0xb7, 0x6c, 0x1f, 0xbe, 0x0f, 0x23, 0x30, 0xbe, 0x52, 0xff, 0x98, 0x3d,
  0x0f, 0x7b, 0x0a, 0x3d, 0x9e, 0x81, 0x8e, 0xbd, 0x04, 0x6c, 0x8d, 0xbd,
  0xed, 0x6d, 0x8f, 0x3c, 0xcf, 0x76, 0x04, 0x3d, 0xe2, 0xd9, 0x56, 0xbe,
  0xdd, 0x10, 0xfb, 0x3d, 0xf6, 0xfd, 0xc3, 0x3d, 0x01, 0x22, 0xdb, 0xbc,
  0x01, 0xe1, 0xb4, 0xbd, 0xcb, 0xeb, 0x0e, 0xbe, 0xb8, 0xac, 0x50, 0xbd,
  0x67, 0xb6, 0x3f, 0x3d, 0x25, 0x23, 0x4c, 0xbe, 0xe8, 0xb6, 0xd1, 0xbd,
  0x50, 0x2d, 0x4f, 0xbd, 0x81, 0x04, 0xc7, 0xbc, 0x5c, 0x12, 0x44, 0x3c,
  0x5d, 0x0d, 0xe6, 0x3d, 0x7c, 0x16, 0xed, 0xbc, 0x9d, 0x7c, 0xc3, 0x3e,
  0x3d, 0xe7, 0x3f, 0x3c, 0xa4, 0xfc, 0xf8, 0x3d, 0x86, 0x2a, 0x17, 0x3e,
  0xf3, 0x8f, 0x5a, 0x3d, 0xdf, 0x09, 0x94, 0xbb, 0xf9, 0xd5, 0x45, 0x3e,
  0xba, 0x3f, 0x9f, 0xbd, 0x79, 0x5c, 0x3d, 0xbd, 0x04, 0x15, 0xf4, 0xbd,
  0x54, 0x71, 0x76, 0xbd, 0x65, 0xe7, 0xd1, 0x3c, 0x41, 0x26, 0xc9, 0x3c,
  0xac, 0xcb, 0x19, 0xbc, 0x68, 0x75, 0xe1, 0x3c, 0x5a, 0xc7, 0x3b, 0x3c,
  0xe9, 0x17, 0x21, 0xbc, 0x01, 0x41, 0x33, 0x3e, 0xa7, 0x78, 0x47, 0xbd,
  0x44, 0xcf, 0x02, 0x3d, 0xe9, 0x39, 0x37, 0xbd, 0xb6, 0x71, 0x67, 0x3e,
  0xea, 0x61, 0x0e, 0xbe, 0xf9, 0xd5, 0x43, 0x3c, 0xd7, 0x64, 0x2d, 0xbe,
  0x32, 0x59, 0x9c, 0xbd, 0x16, 0x2a, 0xad, 0x3c, 0x93, 0x0c, 0xb9, 0xbd,
  0xb6, 0x27, 0xde, 0xbd, 0x61, 0xea, 0xea, 0xbd, 0x48, 0x97, 0x93, 0x3d,
  0x3d, 0x99, 0x45, 0xbe, 0xe6, 0x67, 0x9a, 0x3d, 0x4d, 0x31, 0xf0, 0x3d,
  0x1d, 0xb3, 0x03, 0x3d, 0xc7, 0x5e, 0x4b, 0xbe, 0xb5, 0xa0, 0x18, 0x3e,
  0xea, 0x86, 0x17, 0xbe, 0x0e, 0x11, 0x61, 0x3e, 0xf9, 0x91, 0xff, 0xbd,
  0x8a, 0x1c, 0xb3, 0xbd, 0x7f, 0x53, 0xe2, 0xbd, 0x7c, 0x49, 0x0a, 0xbe,
  0x12, 0x50, 0x01, 0xbe, 0x8b, 0xe5, 0x44, 0xbe, 0x5d, 0x0f, 0x04, 0x3e,
  0x7b, 0x5a, 0xf8, 0x3c, 0xfa, 0xef, 0xd0, 0xbd, 0xac, 0xa8, 0xa0, 0xbe,
  0x41, 0x93, 0x0e, 0xbe, 0xf1, 0xe2, 0x94, 0x3d, 0xbd, 0x47, 0x96, 0xbd,
  0xaf, 0x6b, 0xa0, 0x3c, 0x77, 0xa2, 0xe4, 0xba, 0x70, 0xda, 0x50, 0xbe,
  0xd4, 0x53, 0x63, 0xbc, 0x8e, 0xd3, 0xac, 0x3d, 0xc5, 0xa8, 0x52, 0x3d,
  0x40, 0x05, 0x97, 0x3c, 0x14, 0x86, 0xdf, 0xbd, 0x59, 0xcd, 0x58, 0x3e,
  0x78, 0x10, 0x35, 0xbe, 0x1e, 0x4a, 0x2a, 0x3e, 0x63, 0x56, 0xf0, 0x3d,
  0x9c, 0x5b, 0xac, 0x3c, 0xe9, 0x7b, 0x0e, 0x3e, 0xd4, 0x95, 0x48, 0x3a,
  0x2c, 0xbc, 0xe4, 0x3d, 0xb7, 0x66, 0xa7, 0x3e, 0x58, 0xfe, 0x0c, 0xbd,
  0xb3, 0x9c, 0x25, 0x3e, 0x99, 0x79, 0x0e, 0x3c, 0xe8, 0xb8, 0xa1, 0x3c,
  0xc3, 0xa1, 0x01, 0xbe, 0xd4, 0x93, 0x13, 0x3d, 0x67, 0xd1, 0x22, 0xbe,
  0x63, 0x87, 0x70, 0x3d, 0x0c, 0x73, 0x33, 0xbe, 0x4e, 0x3a, 0x88, 0xbd,
  0x8d, 0x70, 0xa5, 0xbb, 0x10, 0x42, 0xf8, 0x3c, 0xc2, 0x7c, 0x47, 0x3d,
  0x2e, 0xb8, 0x5c, 0x3e, 0x2e, 0x32, 0x4f, 0x3d, 0x1d, 0x24, 0x0c, 0x3e,
  0x30, 0xc4, 0x24, 0xbc, 0x85, 0xaf, 0x19, 0x3e, 0x2f, 0x04, 0xa5, 0xbd,
  0x4e, 0xeb, 0x65, 0xbe, 0xda, 0x08, 0xfd, 0x3d, 0xdd, 0x47, 0x8f, 0x3e,
  0x96, 0x38, 0xd3, 0x3d, 0x2e, 0xb3, 0x28, 0x3d, 0x11, 0xd2, 0x07, 0x3d,
  0x76, 0xb9, 0x23, 0x3e, 0xd1, 0x45, 0x12, 0x3d, 0xd7, 0xcc, 0xd0, 0xbd,
  0x83, 0xc0, 0xe9, 0xbd, 0xc0, 0x60, 0xbe, 0x3d, 0x4c, 0xdf, 0x73, 0xbe,
  0x7b, 0xf0, 0x80, 0x3d, 0x27, 0x19, 0x68, 0x3c, 0xe7, 0x2d, 0x2c, 0x3e,
  0x0a, 0xf1, 0x5b, 0xbe, 0xda, 0x58, 0x3a, 0x3c, 0x77, 0x5e, 0xc8, 0xbd,
  0x45, 0xf9, 0x25, 0xbe, 0xa3, 0x2b, 0x56, 0x3d, 0x9c, 0xf4, 0x50, 0x3d,
  0x56, 0x56, 0x11, 0x3e, 0x55, 0x75, 0xed, 0x3c, 0x1f, 0x32, 0x82, 0xbe,
  0x4f, 0xb3, 0x8d, 0xbd, 0x8e, 0x08, 0xd4, 0xbd, 0x79, 0xa8, 0x5d, 0x3b,
  0xf0, 0xe3, 0xff, 0xbd, 0xff, 0x64, 0xd7, 0xbd, 0x2b, 0xc0, 0x41, 0x3e,
  0x5a, 0x14, 0xb4, 0x3c, 0x42, 0xfa, 0xad, 0x3c, 0xac, 0xb7, 0x52, 0xbd,
  0x6c, 0x65, 0x5e, 0x3d, 0x2c, 0xed, 0x0f, 0x3d, 0x1e, 0x52, 0xe3, 0x3c,
  0xba, 0xdc, 0xa7, 0x3e, 0xa3, 0x8f, 0xa3, 0x3c, 0xad, 0x57, 0x4a, 0xbe,
  0x36, 0x9f, 0x23, 0xbe, 0x71, 0x49, 0xa8, 0xbd, 0xd7, 0x2c, 0x59, 0x3d,
  0x86, 0x53, 0x27, 0x3c, 0x36, 0xcf, 0xb2, 0xbb, 0xcd, 0x9b, 0x9d, 0xbd,
  0x7d, 0x0c, 0x44, 0x3e, 0xc8, 0x8b, 0xad, 0xbc, 0x5a, 0x1c, 0x6e, 0xbe,
  0xb9, 0x85, 0x26, 0xbd, 0x90, 0x4b, 0x52, 0xbe, 0x1d, 0x50, 0x86, 0xbc,
  0x6e, 0x3b, 0x68, 0x3c, 0xc8, 0x4f, 0x02, 0xbe, 0x06, 0x13, 0x46, 0x3e,
  0x06, 0x5b, 0x21, 0xbc, 0xa3, 0xcb, 0xc9, 0xbc, 0xae, 0xde, 0x04, 0x3d,
  0x49, 0x76, 0xe8, 0xbc, 0x00, 0xc5, 0xd6, 0xbc, 0x54, 0x12, 0x23, 0xbd,
  0x35, 0x4b, 0xd9, 0xbc, 0x73, 0x11, 0x1d, 0x3e, 0x57, 0x20, 0xe5, 0xbc,
  0x8d, 0x82, 0xd6, 0xbc, 0xda, 0x28, 0x33, 0x3d, 0xe9, 0xc8, 0x05, 0xbd,
  0xd8, 0xe0, 0x8e, 0xbe, 0x1d, 0xa8, 0x93, 0xbd, 0x1e, 0x56, 0x0d, 0xbd,
  0xd7, 0x6c, 0x2c, 0x3e, 0x1d, 0x37, 0xcf, 0xbd, 0x84, 0x0a, 0x41, 0x3c,
  0xba, 0x58, 0xa7, 0xbd, 0xdc, 0x55, 0xeb, 0xbd, 0xe6, 0x81, 0x02, 0x3e,
  0x23, 0x32, 0x03, 0x3d, 0x8e, 0xff, 0xd9, 0xba, 0x40, 0xcb, 0x24, 0x3e,
  0x6c, 0xa2, 0x98, 0x3d, 0x85, 0x08, 0x85, 0x3d, 0x41, 0x1a, 0xab, 0x3d,
  0xc8, 0x57, 0x18, 0x3d, 0xfc, 0xaf, 0x90, 0x3d, 0xc1, 0x50, 0x17, 0xbe,
  0xf1, 0xa7, 0x13, 0x3e, 0xca, 0x44, 0x8e, 0xbc, 0xa6, 0x43, 0x2e, 0xbe,
  0x89, 0x6d, 0x22, 0xbe, 0x24, 0x84, 0x2b, 0xbe, 0x0f, 0xfa, 0x7f, 0xbc,
  0x41, 0x90, 0x90, 0x3b, 0xa1, 0x5a, 0xef, 0xbd, 0xa9, 0x4b, 0xee, 0x3c,
  0x25, 0xcc, 0x8c, 0xbd, 0x50, 0x14, 0x02, 0xbe, 0x71, 0x2f, 0x50, 0xbd,
  0xf3, 0x94, 0xf5, 0x3c, 0x95, 0x0c, 0x46, 0x3e, 0xe1, 0x0d, 0xe3, 0xbb,
  0x65, 0xfb, 0x0b, 0x3e, 0xa3, 0x7f, 0x54, 0x3d, 0xaa, 0x1b, 0x2f, 0x3d,
  0xb5, 0x0c, 0x30, 0x3e, 0xb8, 0xf0, 0x12, 0xbe, 0x48, 0xc4, 0x80, 0xbc,
  0x6d, 0xd8, 0x18, 0x3e, 0x6a, 0x1f, 0x46, 0xbe, 0xbe, 0x6c, 0x5a, 0xbc,
  0x3c, 0x5f, 0x48, 0xbc, 0x74, 0x7f, 0x0d, 0x3e, 0x80, 0x06, 0x87, 0x3d,
  0x38, 0x1a, 0x94, 0x3d, 0x6c, 0x24, 0x5f, 0x3e, 0x66, 0x37, 0x19, 0x3e,
  0xd7, 0x65, 0x46, 0xbd, 0x60, 0xfe, 0xec, 0x3c, 0xbd, 0x28, 0xb3, 0x3d,
  0x6c, 0x12, 0xb6, 0x3d, 0xac, 0x6d, 0x3d, 0xbd, 0xeb, 0x94, 0x92, 0x3c,
  0xe6, 0x3a, 0x02, 0x3e, 0x79, 0x7c, 0x03, 0x3e, 0x98, 0x6b, 0x49, 0x3e,
  0xe1, 0xdf, 0xf8, 0x3c, 0xdf, 0x9d, 0x3d, 0x3d, 0x06, 0x35, 0x1a, 0xbd,
  0xea, 0x6f, 0xb6, 0xbd, 0x74, 0x58, 0x28, 0x3e, 0x42, 0x17, 0x7e, 0xbe,
  0x24, 0x4b, 0xa0, 0x3c, 0x3c, 0x1d, 0x0f, 0xbd, 0xa8, 0xfb, 0x39, 0xbd,
  0x72, 0xf8, 0x40, 0xbd, 0x2a, 0xcb, 0x42, 0x3d, 0x74, 0xc6, 0x75, 0xbb,
  0xc9, 0xb6, 0x26, 0xbe, 0x5c, 0xd9, 0x1c, 0xbd, 0xe0, 0x9b, 0x18, 0x3e,
  0x2a, 0xd2, 0x70, 0x3d, 0x0a, 0xce, 0x31, 0x3d, 0xe7, 0x32, 0x5b, 0x3d,
  0xa6, 0xbe, 0xb7, 0xbd, 0x43, 0x94, 0x9e, 0xbc, 0x84, 0x94, 0xf2, 0xbc,
  0xd8, 0xf5, 0x9a, 0xbe, 0xf6, 0xe1, 0x89, 0x3d, 0xe9, 0xf4, 0xee, 0x3d,
  0xe1, 0x09, 0x01, 0x3e, 0xeb, 0xae, 0xdd, 0x3a, 0x21, 0xf2, 0xd7, 0xbd,
  0x0e, 0x50, 0x1a, 0x3e, 0xf9, 0xc0, 0x9f, 0x3d, 0xa4, 0x78, 0x2e, 0xbd,
  0x01, 0xa1, 0x88, 0x3d, 0xfd, 0x2c, 0xdb, 0x3d, 0xf5, 0xcb, 0xd8, 0x3d,
  0x43, 0x61, 0x72, 0xbc, 0x5a, 0x96, 0xab, 0x3e, 0xbf, 0xa5, 0x71, 0xbb,
  0x14, 0x96, 0x58, 0x3e, 0x8a, 0x28, 0x19, 0xbe, 0xb1, 0x2b, 0x73, 0xbe,
  0xa9, 0xb5, 0xd8, 0xbc, 0xc0, 0x31, 0xe2, 0x3d, 0xb0, 0xc5, 0xcd, 0x3d,
  0x0a, 0x8c, 0x96, 0x3d, 0xd9, 0x14, 0x2f, 0xbe, 0x75, 0x66, 0xf2, 0x3c,
  0x16, 0x42, 0x0e, 0xbe, 0x80, 0x3d, 0x98, 0xbd, 0x67, 0xbf, 0xc6, 0xbd,
  0xd8, 0xdc, 0xae, 0xbd, 0x2a, 0x20, 0x89, 0xbd, 0x4f, 0xfc, 0x8f, 0xbd,
  0x36, 0x96, 0x58, 0x3c, 0xc1, 0xca, 0xb3, 0x3d, 0xd3, 0x65, 0x8b, 0xbb,
  0x85, 0x4b, 0xd1, 0xbd, 0x43, 0x5b, 0xc7, 0x3d, 0x77, 0x28, 0xb7, 0x3d,
  0x55, 0xca, 0x38, 0x3e, 0xee, 0x51, 0xa5, 0xbd, 0x55, 0x03, 0x61, 0x3e,
  0xaf, 0x5f, 0x26, 0x3e, 0xba, 0x1d, 0x85, 0xbd, 0x71, 0x44, 0x84, 0xbd,
  0x82, 0x06, 0x94, 0xbc, 0x2b, 0x28, 0xb2, 0xbe, 0x1d, 0x19, 0xa0, 0xbc,
  0x0d, 0xd7, 0x94, 0x3c, 0xcb, 0x8d, 0x35, 0xbd, 0x0b, 0x94, 0x7c, 0x3d,
  0xb1, 0x6a, 0xdc, 0xbd, 0x13, 0xb2, 0x04, 0xbc, 0xec, 0xbf, 0xa6, 0xbd,
  0xd0, 0xd7, 0x5b, 0xbd, 0x19, 0x6d, 0xad, 0x3d, 0x00, 0x37, 0xb8, 0x3c,
  0x58, 0x52, 0xb9, 0xbd, 0x4f, 0xe8, 0x2f, 0x3d, 0x20, 0xfc, 0x29, 0xbe,
  0xa2, 0xb8, 0x57, 0xbd, 0x83, 0x48, 0x31, 0xbd, 0xd0, 0xf9, 0xb9, 0x3d,
  0x68, 0x7a, 0xd1, 0xbd, 0x54, 0x5b, 0xee, 0x3c, 0x60, 0xcc, 0xc7, 0x3b,
  0x74, 0x37, 0x2d, 0xbc, 0x1a, 0x87, 0xeb, 0x3c, 0x6c, 0xec, 0x11, 0xbe,
  0x65, 0x88, 0x17, 0x3e, 0x15, 0x40, 0x93, 0x3d, 0xc6, 0xdc, 0xfa, 0xbd,
  0x43, 0xd8, 0xce, 0xbd, 0xd8, 0xc0, 0xb7, 0xbd, 0xef, 0x80, 0x1a, 0x3c,
  0xe8, 0xd7, 0x30, 0x3d, 0xc8, 0x43, 0xd8, 0xbc, 0x7b, 0x87, 0x78, 0xbd,
  0x7a, 0x04, 0x39, 0x3d, 0x8e, 0x8f, 0x43, 0xbd, 0x49, 0xc4, 0xc7, 0xbd,
  0x86, 0xdc, 0x8e, 0xbd, 0x1e, 0xbf, 0x99, 0x3d, 0x37, 0x1f, 0xb4, 0xbc,
  0x36, 0xa5, 0x68, 0x3e, 0x0e, 0x56, 0xaa, 0x3c, 0x8d, 0xc8, 0x2c, 0xbb,
  0x19, 0x26, 0x4c, 0xbe, 0xfb, 0xcc, 0x17, 0x3e, 0x30, 0xe1, 0x99, 0x3d,
  0x10, 0xd4, 0x44, 0xbe, 0x99, 0x91, 0x6e, 0x3d, 0x36, 0xab, 0x55, 0x3d,
  0x0a, 0xaf, 0x6c, 0xb9, 0xa8, 0x2f, 0xb4, 0x3c, 0xfd, 0x2f, 0x99, 0x3d,
  0xc4, 0xd6, 0x44, 0xbe, 0x84, 0x1c, 0x5a, 0x3e, 0x9c, 0x95, 0xe9, 0xbd,
  0xf1, 0x39, 0xf0, 0xbc, 0x8b, 0xb6, 0x33, 0xbe, 0x35, 0xe5, 0x75, 0x3e,
  0xa9, 0xb5, 0x0f, 0xbc, 0xfd, 0xbe, 0x4a, 0x3d, 0xfe, 0xb8, 0xa1, 0x3c,
  0x77, 0x35, 0xfe, 0xbd, 0x3d, 0xde, 0x6a, 0x3d, 0x7e, 0x45, 0x7e, 0xbc,
  0x19, 0x25, 0xe8, 0xbd, 0x8d, 0x79, 0xc1, 0x3b, 0xf8, 0x3b, 0xb1, 0x3e,
  0xa4, 0x7d, 0xbb, 0xbc, 0x5b, 0xcc, 0x07, 0xbd, 0x7a, 0xc9, 0xf6, 0xbc,
  0x5e, 0x1c, 0x03, 0xbe, 0xf8, 0xef, 0xd2, 0x3d, 0x34, 0x7b, 0x04, 0x3e,
  0x7b, 0x9d, 0xb4, 0xbd, 0x21, 0x40, 0xa9, 0x3d, 0xf4, 0xa7, 0xba, 0xbc,
  0x34, 0x02, 0xc4, 0x3d, 0xa1, 0x10, 0x30, 0xbc, 0xa4, 0x09, 0x43, 0x3e,
  0x6c, 0x33, 0x0e, 0x3d, 0xc1, 0x9a, 0x30, 0x3d, 0xdb, 0xc7, 0xed, 0xbc,
  0x27, 0x1b, 0x4e, 0xbe, 0x9e, 0xec, 0x27, 0x3e, 0x2e, 0x9e, 0xad, 0xbd,
  0x76, 0x4c, 0x89, 0x3c, 0xb4, 0x07, 0xc5, 0x3d, 0xe3, 0xc9, 0x09, 0xbe,
  0x46, 0xf1, 0x81, 0x3d, 0xe9, 0xe2, 0x2d, 0x3d, 0x24, 0x0a, 0x62, 0x3e,
  0xad, 0x7d, 0x31, 0xbe, 0x0e, 0xc6, 0x16, 0x3c, 0xee, 0x72, 0x5b, 0x3d,
  0x3f, 0xd0, 0x86, 0x3b, 0x7e, 0xa6, 0x62, 0x3a, 0xcb, 0x04, 0x29, 0x3e,
  0xac, 0x73, 0xf1, 0x3d, 0x86, 0xc8, 0x2d, 0xbe, 0xd8, 0xbe, 0xfe, 0xbd,
  0x0e, 0xd3, 0xa3, 0xbd, 0x69, 0x13, 0x32, 0x3e, 0xa3, 0xdf, 0x11, 0x3d,
  0x18, 0x97, 0x97, 0x3d, 0x4e, 0x6c, 0x1a, 0x3e, 0xe0, 0x39, 0x9a, 0xbc,
  0xaf, 0x6c, 0x53, 0xbc, 0x7d, 0x82, 0xaf, 0xbb, 0x81, 0xba, 0x87, 0xbd,
  0xc2, 0xbe, 0x1e, 0xbe, 0xf0, 0xf5, 0x84, 0xbd, 0xd9, 0x02, 0x9b, 0xbd,
  0xcc, 0x1f, 0x9a, 0x3d, 0xaf, 0xbe, 0x66, 0xbd, 0x71, 0x0c, 0x02, 0xbe,
  0x26, 0x19, 0xe8, 0xbb, 0xaa, 0x01, 0x9c, 0xbd, 0x7a, 0x04, 0xf4, 0xba,
  0xee, 0xa8, 0x35, 0x3e, 0x40, 0xd1, 0xd4, 0x3d, 0x1e, 0x57, 0x54, 0xbe,
  0x2a, 0xe8, 0x75, 0x3c, 0xa8, 0xd5, 0x3f, 0xbd, 0x5c, 0x5c, 0xa7, 0x3d,
  0x80, 0xab, 0xff, 0x3d, 0xcf, 0x4a, 0x41, 0x3e, 0x01, 0x49, 0x8b, 0x3d,
  0x56, 0x0a, 0xeb, 0xbd, 0x79, 0x03, 0x6d, 0xbc, 0x1a, 0xf5, 0xc4, 0x3c,
  0x07, 0xd1, 0x88, 0xbc, 0x20, 0x51, 0x82, 0x3d, 0x97, 0x76, 0x32, 0x3d,
  0x93, 0x5a, 0x5c, 0x3c, 0x0b, 0xc2, 0xdb, 0xba, 0x54, 0xd0, 0x85, 0x3b,
  0xcc, 0xa0, 0xf9, 0xbc, 0xe2, 0xde, 0xbe, 0xbd, 0xd0, 0xc9, 0x0a, 0xbe,
  0xc6, 0xa7, 0x40, 0xbd, 0x9d, 0x56, 0x35, 0xbd, 0x67, 0x89, 0x21, 0x3e,
  0x5f, 0x49, 0x76, 0x3a, 0xd0, 0x8a, 0x10, 0x3e, 0x44, 0xe2, 0xae, 0x3d,
  0x83, 0x88, 0x36, 0x3e, 0x92, 0x1c, 0xd8, 0x3c, 0x8d, 0x5d, 0xd1, 0x3d,
  0xbe, 0x5e, 0x51, 0x3d, 0x34, 0x48, 0xe8, 0x3d, 0x62, 0x32, 0x6a, 0x3d,
  0x42, 0x68, 0x1c, 0x3e, 0x39, 0xc7, 0xcf, 0xbc, 0xa2, 0x37, 0x83, 0x3d,
  0xcf, 0xc1, 0xea, 0x3c, 0x22, 0xaa, 0xba, 0x3d, 0xca, 0xfc, 0x0d, 0xbe,
  0x80, 0xaa, 0xfe, 0x3b, 0x1e, 0x04, 0x3a, 0x3e, 0x8b, 0x2a, 0x5a, 0x3d,
  0x54, 0xe5, 0x6e, 0x3a, 0xa3, 0x1c, 0x0b, 0xbd, 0xb6, 0x46, 0x5c, 0xba,
  0x9b, 0xb3, 0x20, 0x3d, 0x0b, 0x6a, 0x95, 0x3b, 0xcd, 0x13, 0x84, 0xbd,
  0x0e, 0xac, 0x25, 0xbd, 0x51, 0xce, 0x22, 0x3e, 0xde, 0x3b, 0x20, 0x3e,
  0x5d, 0x79, 0xfc, 0xbd, 0x56, 0x26, 0x0a, 0x3d, 0xc2, 0xc8, 0x27, 0x3e,
  0x50, 0xdd, 0x65, 0x3c, 0xeb, 0x70, 0x88, 0x3d, 0x5a, 0xb4, 0xf8, 0xbd,
  0x4b, 0x04, 0x4e, 0xbe, 0xe1, 0x3e, 0x8a, 0x3c, 0x6d, 0xbc, 0x9e, 0x3d,
  0x5d, 0xe8, 0x3b, 0xbc, 0xca, 0x4e, 0xb0, 0x3b, 0xb4, 0xdf, 0x54, 0xbd,
  0xd4, 0x91, 0x9d, 0x3e, 0x6a, 0x78, 0x9a, 0xbd, 0x5b, 0x59, 0x0c, 0xbe,
  0x04, 0x2d, 0x47, 0x3e, 0xa6, 0x7a, 0x52, 0x3e, 0xe6, 0xc3, 0xa3, 0x3d,
  0xdb, 0x85, 0x46, 0xbc, 0x5d, 0xd7, 0x3b, 0x3d, 0x63, 0x3e, 0xd7, 0x3d,
  0x3d, 0x40, 0x42, 0xbe, 0xd6, 0xef, 0xcc, 0xbd, 0x68, 0xa1, 0xac, 0x3c,
  0x67, 0x49, 0xe8, 0xbc, 0xe3, 0x0c, 0x8e, 0xbe, 0xdb, 0x9c, 0x7f, 0xbd,
  0x8a, 0x14, 0x25, 0xbd, 0x00, 0xc7, 0xe3, 0x3d, 0x27, 0xf5, 0x7b, 0x3d,
  0x45, 0x5f, 0x83, 0x3e, 0xac, 0xca, 0xd6, 0x3a, 0x59, 0x4a, 0x23, 0x3e,
  0x63, 0x91, 0x31, 0xbe, 0xae, 0xf4, 0xdd, 0xbb, 0x8e, 0xc0, 0x99, 0xbd,
  0x2b, 0xf8, 0xc7, 0x3d, 0x7a, 0xa9, 0x11, 0xbe, 0x64, 0xa2, 0x63, 0xbd,
  0xd9, 0x80, 0xd4, 0x3d, 0xfb, 0xca, 0x42, 0x3e, 0xf5, 0x1c, 0x0a, 0x3e,
  0xe6, 0x1a, 0x03, 0x3c, 0x05, 0xb2, 0x2c, 0xbd, 0x5a, 0x88, 0x9e, 0x3c,
  0x2e, 0x95, 0x3a, 0xbd, 0xb6, 0x0d, 0xf4, 0xbd, 0xcf, 0x3d, 0xc0, 0x3d,
  0x28, 0xa8, 0x6a, 0xbe, 0xb9, 0x03, 0x09, 0xbe, 0x65, 0x1b, 0x8e, 0xbe,
  0x0a, 0xae, 0xfe, 0xbd, 0xea, 0x13, 0x3e, 0x3e, 0x8c, 0x3a, 0x07, 0xbd,
  0xbd, 0xc6, 0xb3, 0x3d, 0x44, 0x68, 0x19, 0xbe, 0x42, 0xd7, 0x6b, 0xbd,
  0x1a, 0x48, 0x78, 0xbc, 0xab, 0x89, 0x3c, 0xbd, 0x61, 0x1e, 0x17, 0xbe,
  0xd4, 0x67, 0xc9, 0xbc, 0x46, 0xe4, 0x73, 0xbd, 0xc9, 0x20, 0xe1, 0x3d,
  0xe5, 0x4a, 0xbf, 0xbd, 0xe1, 0x00, 0x08, 0x3d, 0x14, 0x2e, 0x21, 0xbe,
  0xbb, 0x73, 0xa8, 0x3d, 0x6b, 0x9f, 0x67, 0xbe, 0x20, 0x9a, 0xb0, 0xbc,
  0x60, 0x66, 0x54, 0x3e, 0xe2, 0x1a, 0x2a, 0xbe, 0x5f, 0x02, 0x89, 0xbe,
  0x97, 0xe4, 0x01, 0xbe, 0x64, 0x93, 0x27, 0xbd, 0x37, 0x4d, 0xa5, 0xbc,
  0x11, 0x17, 0x02, 0x3e, 0x9d, 0x51, 0x98, 0x3d, 0xcb, 0x59, 0x2f, 0x3c,
  0xc1, 0x9c, 0x7e, 0xbc, 0xd8, 0xe8, 0xaf, 0xbd, 0xf3, 0xcf, 0xdd, 0x3d,
  0x6c, 0xaf, 0x03, 0x3d, 0xb1, 0x7b, 0xb0, 0xbd, 0xb3, 0xcf, 0x06, 0x3d,
  0xd6, 0x3f, 0xcd, 0xbd, 0x1f, 0x02, 0x0a, 0x3d, 0x7d, 0x27, 0x29, 0xbd,
  0xf5, 0xd4, 0x82, 0x3b, 0xc7, 0xab, 0x1b, 0xbd, 0x5c, 0x58, 0xac, 0xbb,
  0x16, 0xf1, 0x18, 0xbe, 0xcf, 0x89, 0xb1, 0x3d, 0xad, 0x4d, 0xf3, 0x3d,
  0x72, 0xdf, 0x7c, 0xbe, 0x26, 0xef, 0x6d, 0x3d, 0x59, 0x68, 0x71, 0x3d,
  0x50, 0x31, 0x36, 0x3d, 0x3b, 0x11, 0x72, 0xbd, 0x76, 0x46, 0x91, 0xbc,
  0x40, 0xfc, 0xf9, 0xbc, 0xf7, 0xf4, 0x33, 0x3e, 0x06, 0xb7, 0xba, 0x3d,
  0xc2, 0x7f, 0xe3, 0xbd, 0xe6, 0x89, 0x5a, 0xbe, 0x82, 0x63, 0xf5, 0x3d,
  0xda, 0x36, 0x28, 0xbe, 0x0b, 0x0d, 0x8b, 0x3d, 0x87, 0x70, 0xfc, 0xbd,
  0xc7, 0x70, 0x99, 0x3d, 0xb4, 0xcc, 0xe6, 0xbd, 0x9c, 0xa8, 0x94, 0xbd,
  0x01, 0xce, 0x13, 0x3d, 0x4f, 0x77, 0xbf, 0x3d, 0xfb, 0xb3, 0xf2, 0xbc,
  0xcb, 0xde, 0x10, 0x3b, 0xb5, 0x56, 0xd5, 0xbc, 0x04, 0xb3, 0xca, 0x3a,
  0x5e, 0x45, 0xba, 0xbd, 0xa7, 0x33, 0xce, 0xbd, 0x31, 0x72, 0x59, 0x3c,
  0x8b, 0x9d, 0x4f, 0xb9, 0x6d, 0xeb, 0xda, 0x3d, 0x2e, 0x52, 0x5f, 0x3e,
  0x8a, 0x4a, 0x50, 0xbd, 0x7e, 0x61, 0xf9, 0x3d, 0x23, 0x3e, 0xda, 0x3d,
  0xcf, 0x03, 0xbd, 0xbd, 0xe7, 0x23, 0x00, 0x3e, 0x8c, 0x75, 0xe7, 0x3d,
  0xbc, 0x75, 0x47, 0xbe, 0x8a, 0xcd, 0x2b, 0xbd, 0xb8, 0x43, 0x5c, 0xbe,
  0x21, 0xff, 0x18, 0xbe, 0x30, 0x3f, 0xf5, 0xbc, 0x31, 0x18, 0x00, 0x3c,
  0x29, 0x70, 0xca, 0xbd, 0xe5, 0xc8, 0x1c, 0x3e, 0xc3, 0x8a, 0x25, 0x3c,
  0x7b, 0x01, 0x35, 0x3d, 0xd3, 0xa1, 0xb2, 0x3d, 0x59, 0x18, 0x18, 0xbd,
  0xb0, 0x43, 0x7a, 0xbd, 0x6a, 0x8d, 0x0d, 0x3e, 0x8d, 0xdf, 0xf2, 0xbd,
  0xff, 0x52, 0xaa, 0xbd, 0xd7, 0x08, 0x8d, 0x3d, 0xc6, 0x18, 0x07, 0xbe,
  0x87, 0x26, 0x2d, 0xbe, 0x9e, 0xb3, 0x32, 0x3e, 0x58, 0xc4, 0xc0, 0xbd,
  0xba, 0xd3, 0x1b, 0x3e, 0x33, 0x3b, 0x47, 0x3d, 0x3a, 0x37, 0x01, 0x3d,
  0xbc, 0x1a, 0x48, 0x3e, 0x42, 0x8d, 0x4b, 0xbe, 0xda, 0xb0, 0xf9, 0xbd,
  0xa8, 0x47, 0xb3, 0xbb, 0xdf, 0x1e, 0xea, 0x3d, 0x04, 0xeb, 0x32, 0x3c,
  0xb3, 0xf3, 0xa3, 0xbd, 0x92, 0xb4, 0x41, 0xbd, 0x87, 0xd9, 0x6a, 0xbd,
  0xde, 0x64, 0x95, 0x3c, 0x3a, 0x75, 0xd1, 0xbc, 0x1c, 0x5d, 0x47, 0xbe,
  0x0a, 0x47, 0x58, 0xbe, 0x62, 0x4a, 0x2d, 0xbe, 0x58, 0xb0, 0x13, 0xbd,
  0x61, 0x09, 0x99, 0xbd, 0x40, 0x73, 0x2b, 0x3e, 0x3d, 0x20, 0x50, 0x3d,
  0xe9, 0x6c, 0xfc, 0xbd, 0x73, 0xb7, 0xb5, 0xbd, 0x0e, 0x16, 0xd2, 0xbd,
  0x49, 0x17, 0xf0, 0x3d, 0x7b, 0xb3, 0x21, 0xbc, 0x46, 0xd2, 0xba, 0xbd,
  0x95, 0x4e, 0x85, 0x3d, 0x8b, 0xf4, 0x67, 0xbe, 0x09, 0xf8, 0x01, 0xbe,
  0xe5, 0x67, 0xaa, 0x3c, 0x90, 0xd3, 0x71, 0xbe, 0x6a, 0xc4, 0x75, 0xbc,
  0xff, 0xce, 0x0c, 0xbc, 0xf3, 0xf6, 0xe2, 0xbd, 0x93, 0x58, 0x07, 0x3d,
  0xf8, 0x01, 0x80, 0x3d, 0xea, 0x49, 0x00, 0xbe, 0xfe, 0x9f, 0x57, 0x3d,
  0x35, 0xe6, 0xa0, 0x3d, 0x31, 0xc7, 0x2c, 0x3d, 0x43, 0x38, 0xf8, 0x3c,
  0x38, 0x0a, 0x95, 0xbd, 0x16, 0x9e, 0xfa, 0x3d, 0x59, 0xc6, 0x25, 0xbe,
  0x99, 0x9b, 0x0c, 0x3e, 0x1a, 0x9a, 0x25, 0x3e, 0xa1, 0x08, 0xc2, 0xbb,
  0xed, 0x05, 0xdc, 0xbd, 0xbb, 0x8b, 0x62, 0x3e, 0xa1, 0xe5, 0x8c, 0x3d,
  0xde, 0xb7, 0xdb, 0xbd, 0x1c, 0x1d, 0x00, 0xbd, 0x97, 0xd8, 0x28, 0xbd,
  0xe8, 0x72, 0x87, 0x3c, 0x81, 0x96, 0x20, 0xbd, 0x40, 0x4d, 0x37, 0xbd,
  0x64, 0x79, 0x7b, 0xbd, 0xa5, 0x57, 0x06, 0xbd, 0xaa, 0xe9, 0x9a, 0x3d,
  0x9d, 0x79, 0x0e, 0x3d, 0xb1, 0xe5, 0x60, 0x3e, 0xbb, 0x3d, 0x34, 0x3c,
  0xb1, 0x18, 0x67, 0x3e, 0x63, 0xc4, 0x05, 0x3e, 0x67, 0x80, 0xbc, 0xbd,
  0xd6, 0x92, 0xab, 0xbb, 0x30, 0x2d, 0xf1, 0xbd, 0x87, 0x92, 0xa9, 0xbb,
  0xff, 0x47, 0x8a, 0xbd, 0xcd, 0x72, 0x5b, 0xbe, 0xbe, 0x76, 0xe6, 0x3d,
  0x76, 0x5a, 0x21, 0x3d, 0xae, 0xbe, 0x35, 0xbd, 0x50, 0x34, 0x0b, 0xbe,
  0xdb, 0x35, 0x7c, 0xbe, 0xd3, 0xb7, 0x4d, 0x3e, 0x9f, 0xf8, 0xca, 0xbd,
  0xc0, 0xc5, 0x63, 0x3b, 0x6c, 0x79, 0x9f, 0xbc, 0xa1, 0x1e, 0xf9, 0xbb,
  0xdb, 0x39, 0xab, 0x3d, 0x43, 0x34, 0x29, 0x3c, 0x69, 0xc9, 0x7c, 0x3d,
  0x29, 0xb6, 0x11, 0x3e, 0xd1, 0xd1, 0xa3, 0x3d, 0x51, 0x2a, 0xb2, 0x3d,
  0xa3, 0x63, 0xf1, 0xbd, 0x59, 0x47, 0x85, 0x3d, 0xf1, 0x25, 0x15, 0xbd,
  0xc1, 0x42, 0xb9, 0xbb, 0x45, 0x45, 0x15, 0xbe, 0x1f, 0x73, 0x05, 0x3e,
  0x15, 0xcc, 0x0e, 0xbe, 0xa6, 0x0c, 0x9c, 0x3e, 0x43, 0x91, 0xd1, 0xbb,
  0x20, 0x60, 0x61, 0x3d, 0xac, 0x7d, 0x8b, 0x3d, 0x9e, 0x07, 0x49, 0xbd,
  0x8d, 0x26, 0xb8, 0x3d, 0x52, 0xf0, 0x0b, 0x3e, 0x0b, 0xf6, 0xf9, 0x3c,
  0xcc, 0xfd, 0x1c, 0x3e, 0x6f, 0xb8, 0xdf, 0x3d, 0x52, 0x1f, 0x89, 0x3d,
  0x69, 0x8c, 0x94, 0x3c, 0xe8, 0xa3, 0x16, 0xbe, 0xf4, 0x8e, 0x15, 0xbe,
  0xfb, 0x2b, 0xd3, 0xbd, 0xc3, 0xce, 0x09, 0xbd, 0xdb, 0xd9, 0xb3, 0xba,
  0xf8, 0x5f, 0x3c, 0xbd, 0x82, 0x2c, 0x47, 0x3e, 0x80, 0x22, 0x04, 0xbd,
  0x1c, 0x38, 0xa6, 0x3d, 0x19, 0x73, 0x11, 0x3e, 0xec, 0xdb, 0x60, 0x3d,
  0x0c, 0x71, 0x79, 0xbd, 0x4f, 0x3a, 0x0c, 0xbd, 0xc2, 0xd4, 0xd3, 0xbd,
  0xbf, 0xef, 0x78, 0x3d, 0x5c, 0x81, 0xc1, 0xbd, 0x9a, 0xc9, 0x1b, 0xbe,
  0x42, 0x46, 0x33, 0x3d, 0x74, 0xd5, 0x70, 0x3c, 0x5a, 0xef, 0x8b, 0x3c,
  0x8c, 0x66, 0x23, 0x3e, 0xa6, 0xb1, 0x8d, 0xbd, 0xe5, 0xa9, 0x01, 0x3d,
  0xd6, 0xf9, 0x45, 0xbe, 0xfb, 0x38, 0xcb, 0xbd, 0xeb, 0x59, 0x76, 0xbd,
  0x05, 0xa1, 0x95, 0xbd, 0x34, 0x12, 0x6e, 0xbe, 0x94, 0x60, 0xae, 0x3c,
  0x6b, 0xa4, 0x21, 0x3e, 0x33, 0x8c, 0x96, 0x3d, 0x5c, 0xa4, 0x46, 0x3c,
  0x18, 0xa9, 0x0a, 0xbe, 0xaf, 0x24, 0x28, 0x3e, 0x66, 0xea, 0xe8, 0xbd,
  0xfa, 0x7d, 0x7a, 0x3d, 0xca, 0x43, 0xf8, 0xbc, 0x36, 0x57, 0xde, 0x3d,
  0xa3, 0xa7, 0xe0, 0xbd, 0x2c, 0xc4, 0x8a, 0xbc, 0x7b, 0xf2, 0xe7, 0xbd,
  0xb8, 0x81, 0x01, 0x3e, 0x52, 0x6b, 0x37, 0x3d, 0x47, 0xcb, 0x48, 0x3e,
  0x5a, 0xdb, 0x11, 0x3e, 0x7f, 0x70, 0x7f, 0xbe, 0xe7, 0x3d, 0x80, 0xbd,
  0x4d, 0x47, 0xc5, 0xbd, 0x0e, 0x49, 0x7e, 0xbd, 0x9e, 0x25, 0x8e, 0xbd,
  0xaa, 0xc6, 0x21, 0x3e, 0x89, 0x8d, 0x52, 0xbb, 0xbc, 0xac, 0x8b, 0x3c,
  0x0f, 0x07, 0x30, 0x3d, 0x0f, 0x42, 0x01, 0x3d, 0x1f, 0xb4, 0x91, 0xbd,
  0xb1, 0x88, 0xb0, 0xbd, 0xd5, 0x13, 0x84, 0xbb, 0x5d, 0x20, 0x85, 0x3d,
  0xfb, 0x72, 0xc4, 0xbd, 0xf6, 0xae, 0x98, 0xbd, 0xcd, 0x5d, 0x82, 0xbc,
  0x46, 0xe2, 0x24, 0xbd, 0xf7, 0xbf, 0x53, 0xbe, 0xc8, 0x56, 0x19, 0xbe,
  0xd0, 0x7c, 0xf6, 0x3d, 0x65, 0x6c, 0xcb, 0x3d, 0xcf, 0x48, 0xe8, 0xbc,
  0x94, 0x36, 0x76, 0xbe, 0xe4, 0x3a, 0xb1, 0xbd, 0x31, 0x4f, 0x35, 0xbe,
  0x2b, 0x50, 0xfb, 0x3a, 0xa2, 0xfb, 0x00, 0xbc, 0x98, 0xbe, 0xa6, 0x3d,
  0xdd, 0x11, 0x06, 0x3d, 0x39, 0x52, 0x49, 0x3c, 0xae, 0x50, 0x0f, 0x3d,
  0x15, 0xbd, 0x81, 0x3d, 0xd4, 0x29, 0xaf, 0x3d, 0x98, 0x97, 0x71, 0x3e,
  0x6c, 0xb9, 0xdc, 0x3d, 0xc7, 0x6f, 0xf7, 0xbc, 0xc1, 0xac, 0x28, 0x3e,
  0x86, 0x60, 0x58, 0xbd, 0x70, 0xfb, 0x24, 0xbe, 0x06, 0xd4, 0x19, 0xbd,
  0xdf, 0x72, 0x27, 0x3d, 0x88, 0x84, 0x0c, 0xbe, 0x7c, 0x33, 0xff, 0xff,
  0x80, 0x33, 0xff, 0xff, 0x86, 0xc8, 0xff, 0xff, 0x04, 0x00, 0x00, 0x00,
  0x04, 0x00, 0x00, 0x00, 0x01, 0x00, 0x00, 0x00, 0x96, 0xc8, 0xff, 0xff,
  0x04, 0x00, 0x00, 0x00, 0x0c, 0x00, 0x00, 0x00, 0x01, 0x00, 0x00, 0x00,
  0x00, 0x00, 0x00, 0x00, 0x02, 0x00, 0x00, 0x00, 0xae, 0xc8, 0xff, 0xff,
  0x04, 0x00, 0x00, 0x00, 0x04, 0x00, 0x00, 0x00, 0x00, 0x00, 0x00, 0x00,
  0xbe, 0xc8, 0xff, 0xff, 0x04, 0x00, 0x00, 0x00, 0x04, 0x00, 0x00, 0x00,
  0x14, 0x00, 0x00, 0x00, 0xce, 0xc8, 0xff, 0xff, 0x04, 0x00, 0x00, 0x00,
  0x08, 0x00, 0x00, 0x00, 0xd2, 0x68, 0xff, 0xbc, 0xd2, 0x68, 0xff, 0x3c,
  0xe2, 0xc8, 0xff, 0xff, 0x04, 0x00, 0x00, 0x00, 0x40, 0x01, 0x00, 0x00,
  0xb9, 0x27, 0xf4, 0x3c, 0x52, 0x84, 0x06, 0x3d, 0x5f, 0x97, 0xdf, 0xbc,
  0x8b, 0xec, 0xa6, 0xbc, 0xc0, 0x4a, 0xed, 0x3c, 0xb8, 0xc1, 0xfb, 0x3c,
  0xe7, 0xa7, 0xc3, 0xbb, 0x97, 0x3f, 0xf7, 0x3c, 0xe8, 0x76, 0x85, 0xbc,
  0xc8, 0x06, 0x00, 0xbc, 0xba, 0xfc, 0x0a, 0xbd, 0x93, 0x09, 0xcc, 0x3c,
  0x5c, 0xcb, 0x3b, 0xba, 0xe5, 0x58, 0x0a, 0xbb, 0x23, 0x69, 0xf1, 0x3c,
  0x5a, 0xef, 0x7d, 0xbc, 0xdb, 0xe5, 0x8d, 0xbc, 0x12, 0x7f, 0xb7, 0xbc,
  0x63, 0xfc, 0xb0, 0xbc, 0x06, 0x42, 0x26, 0xbb, 0x56, 0x1b, 0x84, 0x3f,
  0xe4, 0x71, 0x84, 0x3f, 0xef, 0xac, 0x79, 0x3f, 0xdd, 0xd4, 0x7a, 0x3f,
  0x2f, 0xf4, 0x83, 0x3f, 0x11, 0x55, 0x84, 0x3f, 0xb8, 0x9f, 0x7f, 0x3f,
  0xf7, 0xd5, 0x82, 0x3f, 0xf4, 0xb4, 0x7a, 0x3f, 0xa7, 0xaa, 0x81, 0x3f,
  0x32, 0xb6, 0x77, 0x3f, 0x94, 0x2f, 0x83, 0x3f, 0xf1, 0x6e, 0x83, 0x3f,
  0x5c, 0x60, 0x7c, 0x3f, 0xb7, 0xa9, 0x84, 0x3f, 0x0b, 0xe5, 0x7b, 0x3f,
  0x2c, 0x82, 0x7b, 0x3f, 0x84, 0x54, 0x7a, 0x3f, 0x8e, 0x17, 0x7a, 0x3f,
  0xb2, 0x13, 0x7e, 0x3f, 0x65, 0x06, 0x06, 0xbd, 0x7f, 0xa4, 0xfd, 0xbc,
  0x8a, 0xf7, 0x06, 0x3d, 0xd3, 0x1f, 0xa2, 0xbc, 0xfe, 0xe0, 0xd6, 0xbc,
  0x54, 0xa5, 0xf5, 0x3c, 0xdb, 0xcd, 0xd4, 0xbc, 0xbe, 0xe4, 0xdf, 0x3c,
  0xc4, 0xe3, 0x4e, 0xbc, 0x54, 0x33, 0xa4, 0xbc, 0xa5, 0x0f, 0x02, 0xbd,
  0x66, 0x26, 0xaf, 0xbc, 0x55, 0x70, 0xe3, 0x3c, 0x88, 0x37, 0xa2, 0xbb,
  0x51, 0x08, 0xf9, 0xbc, 0xb5, 0x48, 0xd0, 0x3c, 0xb7, 0x52, 0x97, 0xbc,
  0x1a, 0xb7, 0xb2, 0x3c, 0x16, 0x06, 0xf6, 0x3c, 0xb3, 0x87, 0xf2, 0xbc,
  0x57, 0x55, 0xe9, 0x3c, 0x71, 0x3d, 0x12, 0x3d, 0xcc, 0xf2, 0xcf, 0xbc,
  0x42, 0x88, 0x9d, 0xbc, 0xc4, 0xf4, 0x02, 0x3d, 0x5d, 0xf4, 0x08, 0x3d,
  0x2e, 0xbf, 0x1f, 0xbb, 0x3b, 0x1c, 0x06, 0x3d, 0x4b, 0xc3, 0x7b, 0xbc,
  0x85, 0x0e, 0x59, 0xbc, 0xcb, 0x93, 0xfe, 0xbc, 0x2e, 0x1f, 0xf5, 0x3c,
  0x66, 0x43, 0x18, 0x3c, 0x54, 0xa4, 0xc6, 0xbb, 0xd5, 0x3b, 0x09, 0x3d,
  0x6a, 0xac, 0x7e, 0xbc, 0xda, 0x1f, 0x7c, 0xbc, 0x94, 0xac, 0xba, 0xbc,
  0x56, 0x49, 0xa6, 0xbc, 0x25, 0x04, 0x3e, 0xbb, 0x2c, 0x35, 0xff, 0xff,
  0x30, 0x35, 0xff, 0xff, 0x0f, 0x00, 0x00, 0x00, 0x4d, 0x4c, 0x49, 0x52,
  0x20, 0x43, 0x6f, 0x6e, 0x76, 0x65, 0x72, 0x74, 0x65, 0x64, 0x2e, 0x00,
  0x01, 0x00, 0x00, 0x00, 0x14, 0x00, 0x00, 0x00, 0x00, 0x00, 0x0e, 0x00,
  0x18, 0x00, 0x14, 0x00, 0x10, 0x00, 0x0c, 0x00, 0x08, 0x00, 0x04, 0x00,
  0x0e, 0x00, 0x00, 0x00, 0x14, 0x00, 0x00, 0x00, 0x1c, 0x00, 0x00, 0x00,
  0xcc, 0x36, 0x00, 0x00, 0xd0, 0x36, 0x00, 0x00, 0xd4, 0x36, 0x00, 0x00,
  0x04, 0x00, 0x00, 0x00, 0x6d, 0x61, 0x69, 0x6e, 0x00, 0x00, 0x00, 0x00,
  0x20, 0x01, 0x00, 0x00, 0x7c, 0x36, 0x00, 0x00, 0x1c, 0x36, 0x00, 0x00,
  0xe4, 0x35, 0x00, 0x00, 0x50, 0x35, 0x00, 0x00, 0x18, 0x35, 0x00, 0x00,
  0xf0, 0x34, 0x00, 0x00, 0xb8, 0x34, 0x00, 0x00, 0x80, 0x34, 0x00, 0x00,
  0x4c, 0x34, 0x00, 0x00, 0x18, 0x34, 0x00, 0x00, 0xd4, 0x33, 0x00, 0x00,
  0xb0, 0x33, 0x00, 0x00, 0x8c, 0x33, 0x00, 0x00, 0x58, 0x33, 0x00, 0x00,
  0x34, 0x33, 0x00, 0x00, 0x10, 0x33, 0x00, 0x00, 0xdc, 0x32, 0x00, 0x00,
  0xa8, 0x32, 0x00, 0x00, 0x84, 0x32, 0x00, 0x00, 0x50, 0x32, 0x00, 0x00,
  0x18, 0x32, 0x00, 0x00, 0xe0, 0x31, 0x00, 0x00, 0xa8, 0x31, 0x00, 0x00,
  0x70, 0x31, 0x00, 0x00, 0x38, 0x31, 0x00, 0x00, 0x00, 0x31, 0x00, 0x00,
  0xc8, 0x30, 0x00, 0x00, 0x94, 0x30, 0x00, 0x00, 0x60, 0x30, 0x00, 0x00,
  0x1c, 0x30, 0x00, 0x00, 0xf8, 0x2f, 0x00, 0x00, 0xd4, 0x2f, 0x00, 0x00,
  0xa0, 0x2f, 0x00, 0x00, 0x7c, 0x2f, 0x00, 0x00, 0x58, 0x2f, 0x00, 0x00,
  0x24, 0x2f, 0x00, 0x00, 0xf0, 0x2e, 0x00, 0x00, 0xcc, 0x2e, 0x00, 0x00,
  0x98, 0x2e, 0x00, 0x00, 0x60, 0x2e, 0x00, 0x00, 0x28, 0x2e, 0x00, 0x00,
  0xf0, 0x2d, 0x00, 0x00, 0xb8, 0x2d, 0x00, 0x00, 0x80, 0x2d, 0x00, 0x00,
  0x48, 0x2d, 0x00, 0x00, 0x10, 0x2d, 0x00, 0x00, 0xd8, 0x2c, 0x00, 0x00,
  0xa0, 0x2c, 0x00, 0x00, 0x68, 0x2c, 0x00, 0x00, 0x30, 0x2c, 0x00, 0x00,
  0xf8, 0x2b, 0x00, 0x00, 0xc4, 0x2b, 0x00, 0x00, 0x90, 0x2b, 0x00, 0x00,
  0x4c, 0x2b, 0x00, 0x00, 0x28, 0x2b, 0x00, 0x00, 0x04, 0x2b, 0x00, 0x00,
  0xd0, 0x2a, 0x00, 0x00, 0xac, 0x2a, 0x00, 0x00, 0x88, 0x2a, 0x00, 0x00,
  0x54, 0x2a, 0x00, 0x00, 0x20, 0x2a, 0x00, 0x00, 0xfc, 0x29, 0x00, 0x00,
  0xc8, 0x29, 0x00, 0x00, 0x90, 0x29, 0x00, 0x00, 0x58, 0x29, 0x00, 0x00,
  0x24, 0x29, 0x00, 0x00, 0xf0, 0x28, 0x00, 0x00, 0xac, 0x28, 0x00, 0x00,
  0x88, 0x28, 0x00, 0x00, 0x54, 0x28, 0x00, 0x00, 0x30, 0x28, 0x00, 0x00,
  0x0c, 0x28, 0x00, 0x00, 0xe8, 0x27, 0x00, 0x00, 0xb4, 0x27, 0x00, 0x00,
  0x80, 0x27, 0x00, 0x00, 0x5c, 0x27, 0x00, 0x00, 0x28, 0x27, 0x00, 0x00,
  0xf0, 0x26, 0x00, 0x00, 0xb8, 0x26, 0x00, 0x00, 0x84, 0x26, 0x00, 0x00,
  0x50, 0x26, 0x00, 0x00, 0x0c, 0x26, 0x00, 0x00, 0xe8, 0x25, 0x00, 0x00,
  0xc4, 0x25, 0x00, 0x00, 0x90, 0x25, 0x00, 0x00, 0x6c, 0x25, 0x00, 0x00,
  0x48, 0x25, 0x00, 0x00, 0x14, 0x25, 0x00, 0x00, 0xe0, 0x24, 0x00, 0x00,
  0xbc, 0x24, 0x00, 0x00, 0x88, 0x24, 0x00, 0x00, 0x50, 0x24, 0x00, 0x00,
  0x1c, 0x24, 0x00, 0x00, 0xe8, 0x23, 0x00, 0x00, 0xa4, 0x23, 0x00, 0x00,
  0x80, 0x23, 0x00, 0x00, 0x5c, 0x23, 0x00, 0x00, 0x38, 0x23, 0x00, 0x00,
  0x14, 0x23, 0x00, 0x00, 0xe0, 0x22, 0x00, 0x00, 0xac, 0x22, 0x00, 0x00,
  0x78, 0x22, 0x00, 0x00, 0x54, 0x22, 0x00, 0x00, 0x20, 0x22, 0x00, 0x00,
  0xe8, 0x21, 0x00, 0x00, 0xb4, 0x21, 0x00, 0x00, 0x80, 0x21, 0x00, 0x00,
  0x3c, 0x21, 0x00, 0x00, 0x18, 0x21, 0x00, 0x00, 0xf4, 0x20, 0x00, 0x00,
  0xd0, 0x20, 0x00, 0x00, 0xac, 0x20, 0x00, 0x00, 0x78, 0x20, 0x00, 0x00,
  0x44, 0x20, 0x00, 0x00, 0x10, 0x20, 0x00, 0x00, 0xec, 0x1f, 0x00, 0x00,
  0xb8, 0x1f, 0x00, 0x00, 0x80, 0x1f, 0x00, 0x00, 0x4c, 0x1f, 0x00, 0x00,
  0x18, 0x1f, 0x00, 0x00, 0xd4, 0x1e, 0x00, 0x00, 0xb0, 0x1e, 0x00, 0x00,
  0x8c, 0x1e, 0x00, 0x00, 0x68, 0x1e, 0x00, 0x00, 0x44, 0x1e, 0x00, 0x00,
  0x10, 0x1e, 0x00, 0x00, 0xdc, 0x1d, 0x00, 0x00, 0xa8, 0x1d, 0x00, 0x00,
  0x84, 0x1d, 0x00, 0x00, 0x50, 0x1d, 0x00, 0x00, 0x18, 0x1d, 0x00, 0x00,
  0xe4, 0x1c, 0x00, 0x00, 0xb0, 0x1c, 0x00, 0x00, 0x6c, 0x1c, 0x00, 0x00,
  0x48, 0x1c, 0x00, 0x00, 0x24, 0x1c, 0x00, 0x00, 0x00, 0x1c, 0x00, 0x00,
  0xdc, 0x1b, 0x00, 0x00, 0xa8, 0x1b, 0x00, 0x00, 0x74, 0x1b, 0x00, 0x00,
  0x40, 0x1b, 0x00, 0x00, 0x1c, 0x1b, 0x00, 0x00, 0xe8, 0x1a, 0x00, 0x00,
  0xb0, 0x1a, 0x00, 0x00, 0x7c, 0x1a, 0x00, 0x00, 0x48, 0x1a, 0x00, 0x00,
  0x04, 0x1a, 0x00, 0x00, 0xe0, 0x19, 0x00, 0x00, 0xbc, 0x19, 0x00, 0x00,
  0x98, 0x19, 0x00, 0x00, 0x74, 0x19, 0x00, 0x00, 0x40, 0x19, 0x00, 0x00,
  0x0c, 0x19, 0x00, 0x00, 0xd8, 0x18, 0x00, 0x00, 0xb4, 0x18, 0x00, 0x00,
  0x80, 0x18, 0x00, 0x00, 0x48, 0x18, 0x00, 0x00, 0x14, 0x18, 0x00, 0x00,
  0xe0, 0x17, 0x00, 0x00, 0x9c, 0x17, 0x00, 0x00, 0x78, 0x17, 0x00, 0x00,
  0x54, 0x17, 0x00, 0x00, 0x30, 0x17, 0x00, 0x00, 0x0c, 0x17, 0x00, 0x00,
  0xd8, 0x16, 0x00, 0x00, 0xa4, 0x16, 0x00, 0x00, 0x70, 0x16, 0x00, 0x00,
  0x4c, 0x16, 0x00, 0x00, 0x18, 0x16, 0x00, 0x00, 0xe0, 0x15, 0x00, 0x00,
  0xac, 0x15, 0x00, 0x00, 0x78, 0x15, 0x00, 0x00, 0x34, 0x15, 0x00, 0x00,
  0x10, 0x15, 0x00, 0x00, 0xec, 0x14, 0x00, 0x00, 0xc8, 0x14, 0x00, 0x00,
  0xa4, 0x14, 0x00, 0x00, 0x70, 0x14, 0x00, 0x00, 0x3c, 0x14, 0x00, 0x00,
  0x08, 0x14, 0x00, 0x00, 0xe4, 0x13, 0x00, 0x00, 0xb0, 0x13, 0x00, 0x00,
  0x78, 0x13, 0x00, 0x00, 0x44, 0x13, 0x00, 0x00, 0x10, 0x13, 0x00, 0x00,
  0xcc, 0x12, 0x00, 0x00, 0xa8, 0x12, 0x00, 0x00, 0x84, 0x12, 0x00, 0x00,
  0x60, 0x12, 0x00, 0x00, 0x3c, 0x12, 0x00, 0x00, 0x08, 0x12, 0x00, 0x00,
  0xd4, 0x11, 0x00, 0x00, 0xa0, 0x11, 0x00, 0x00, 0x7c, 0x11, 0x00, 0x00,
  0x48, 0x11, 0x00, 0x00, 0x10, 0x11, 0x00, 0x00, 0xdc, 0x10, 0x00, 0x00,
  0xa8, 0x10, 0x00, 0x00, 0x64, 0x10, 0x00, 0x00, 0x40, 0x10, 0x00, 0x00,
  0x1c, 0x10, 0x00, 0x00, 0xf8, 0x0f, 0x00, 0x00, 0xd4, 0x0f, 0x00, 0x00,
  0xa0, 0x0f, 0x00, 0x00, 0x6c, 0x0f, 0x00, 0x00, 0x38, 0x0f, 0x00, 0x00,
  0x14, 0x0f, 0x00, 0x00, 0xe0, 0x0e, 0x00, 0x00, 0xa8, 0x0e, 0x00, 0x00,
  0x74, 0x0e, 0x00, 0x00, 0x40, 0x0e, 0x00, 0x00, 0xfc, 0x0d, 0x00, 0x00,
  0xd8, 0x0d, 0x00, 0x00, 0xb4, 0x0d, 0x00, 0x00, 0x90, 0x0d, 0x00, 0x00,
  0x6c, 0x0d, 0x00, 0x00, 0x38, 0x0d, 0x00, 0x00, 0x04, 0x0d, 0x00, 0x00,
  0xd0, 0x0c, 0x00, 0x00, 0xac, 0x0c, 0x00, 0x00, 0x78, 0x0c, 0x00, 0x00,
  0x40, 0x0c, 0x00, 0x00, 0x0c, 0x0c, 0x00, 0x00, 0xd8, 0x0b, 0x00, 0x00,
  0x94, 0x0b, 0x00, 0x00, 0x70, 0x0b, 0x00, 0x00, 0x4c, 0x0b, 0x00, 0x00,
  0x28, 0x0b, 0x00, 0x00, 0x04, 0x0b, 0x00, 0x00, 0xd0, 0x0a, 0x00, 0x00,
  0x9c, 0x0a, 0x00, 0x00, 0x68, 0x0a, 0x00, 0x00, 0x44, 0x0a, 0x00, 0x00,
  0x10, 0x0a, 0x00, 0x00, 0xd8, 0x09, 0x00, 0x00, 0xa4, 0x09, 0x00, 0x00,
  0x70, 0x09, 0x00, 0x00, 0x2c, 0x09, 0x00, 0x00, 0x08, 0x09, 0x00, 0x00,
  0xe4, 0x08, 0x00, 0x00, 0xc0, 0x08, 0x00, 0x00, 0x9c, 0x08, 0x00, 0x00,
  0x68, 0x08, 0x00, 0x00, 0x34, 0x08, 0x00, 0x00, 0x00, 0x08, 0x00, 0x00,
  0xdc, 0x07, 0x00, 0x00, 0xa8, 0x07, 0x00, 0x00, 0x70, 0x07, 0x00, 0x00,
  0x3c, 0x07, 0x00, 0x00, 0x08, 0x07, 0x00, 0x00, 0xc4, 0x06, 0x00, 0x00,
  0xa0, 0x06, 0x00, 0x00, 0x7c, 0x06, 0x00, 0x00, 0x58, 0x06, 0x00, 0x00,
  0x34, 0x06, 0x00, 0x00, 0x00, 0x06, 0x00, 0x00, 0xcc, 0x05, 0x00, 0x00,
  0x98, 0x05, 0x00, 0x00, 0x74, 0x05, 0x00, 0x00, 0x40, 0x05, 0x00, 0x00,
  0x08, 0x05, 0x00, 0x00, 0xd4, 0x04, 0x00, 0x00, 0xa0, 0x04, 0x00, 0x00,
  0x5c, 0x04, 0x00, 0x00, 0x38, 0x04, 0x00, 0x00, 0x14, 0x04, 0x00, 0x00,
  0xf0, 0x03, 0x00, 0x00, 0xcc, 0x03, 0x00, 0x00, 0x98, 0x03, 0x00, 0x00,
  0x64, 0x03, 0x00, 0x00, 0x30, 0x03, 0x00, 0x00, 0x0c, 0x03, 0x00, 0x00,
  0xd8, 0x02, 0x00, 0x00, 0xa0, 0x02, 0x00, 0x00, 0x6c, 0x02, 0x00, 0x00,
  0x38, 0x02, 0x00, 0x00, 0xf4, 0x01, 0x00, 0x00, 0xd0, 0x01, 0x00, 0x00,
  0xac, 0x01, 0x00, 0x00, 0x88, 0x01, 0x00, 0x00, 0x64, 0x01, 0x00, 0x00,
  0x30, 0x01, 0x00, 0x00, 0xfc, 0x00, 0x00, 0x00, 0xc8, 0x00, 0x00, 0x00,
  0xa4, 0x00, 0x00, 0x00, 0x70, 0x00, 0x00, 0x00, 0x38, 0x00, 0x00, 0x00,
  0x04, 0x00, 0x00, 0x00, 0x6e, 0xce, 0xff, 0xff, 0x14, 0x00, 0x00, 0x00,
  0x00, 0x00, 0x00, 0x09, 0x14, 0x00, 0x00, 0x00, 0x18, 0x00, 0x00, 0x00,
  0x0c, 0x00, 0x00, 0x00, 0x22, 0xcf, 0xff, 0xff, 0x00, 0x00, 0x80, 0x3f,
  0x01, 0x00, 0x00, 0x00, 0x7a, 0x01, 0x00, 0x00, 0x01, 0x00, 0x00, 0x00,
  0x79, 0x01, 0x00, 0x00, 0x9e, 0xce, 0xff, 0xff, 0x14, 0x00, 0x00, 0x00,
  0x00, 0x00, 0x00, 0x08, 0x10, 0x00, 0x00, 0x00, 0x14, 0x00, 0x00, 0x00,
  0x06, 0x00, 0x00, 0x00, 0x50, 0x3a, 0xff, 0xff, 0x01, 0x00, 0x00, 0x00,
  0x79, 0x01, 0x00, 0x00, 0x03, 0x00, 0x00, 0x00, 0x78, 0x01, 0x00, 0x00,
  0x0b, 0x00, 0x00, 0x00, 0x02, 0x00, 0x00, 0x00, 0xd2, 0xce, 0xff, 0xff,
  0x14, 0x00, 0x00, 0x00, 0x00, 0x00, 0x00, 0x15, 0x10, 0x00, 0x00, 0x00,
  0x14, 0x00, 0x00, 0x00, 0x0a, 0x00, 0x00, 0x00, 0x84, 0x3a, 0xff, 0xff,
  0x01, 0x00, 0x00, 0x00, 0x78, 0x01, 0x00, 0x00, 0x02, 0x00, 0x00, 0x00,
  0x72, 0x01, 0x00, 0x00, 0x77, 0x01, 0x00, 0x00, 0x32, 0xcf, 0xff, 0xff,
  0x0c, 0x00, 0x00, 0x00, 0x10, 0x00, 0x00, 0x00, 0x0b, 0x00, 0x00, 0x00,
  0x01, 0x00, 0x00, 0x00, 0x77, 0x01, 0x00, 0x00, 0x01, 0x00, 0x00, 0x00,
  0x76, 0x01, 0x00, 0x00, 0x22, 0xcf, 0xff, 0xff, 0x14, 0x00, 0x00, 0x00,
  0x00, 0x00, 0x00, 0x0b, 0x10, 0x00, 0x00, 0x00, 0x14, 0x00, 0x00, 0x00,
  0x07, 0x00, 0x00, 0x00, 0xd4, 0x3a, 0xff, 0xff, 0x01, 0x00, 0x00, 0x00,
  0x76, 0x01, 0x00, 0x00, 0x02, 0x00, 0x00, 0x00, 0x75, 0x01, 0x00, 0x00,
  0x74, 0x01, 0x00, 0x00, 0x52, 0xcf, 0xff, 0xff, 0x14, 0x00, 0x00, 0x00,
  0x00, 0x00, 0x00, 0x15, 0x10, 0x00, 0x00, 0x00, 0x14, 0x00, 0x00, 0x00,
  0x0a, 0x00, 0x00, 0x00, 0x04, 0x3b, 0xff, 0xff, 0x01, 0x00, 0x00, 0x00,
  0x75, 0x01, 0x00, 0x00, 0x02, 0x00, 0x00, 0x00, 0x71, 0x01, 0x00, 0x00,
  0x66, 0x01, 0x00, 0x00, 0x82, 0xcf, 0xff, 0xff, 0x14, 0x00, 0x00, 0x00,
  0x00, 0x00, 0x00, 0x15, 0x10, 0x00, 0x00, 0x00, 0x14, 0x00, 0x00, 0x00,
  0x0a, 0x00, 0x00, 0x00, 0x34, 0x3b, 0xff, 0xff, 0x01, 0x00, 0x00, 0x00,
  0x74, 0x01, 0x00, 0x00, 0x02, 0x00, 0x00, 0x00, 0x70, 0x01, 0x00, 0x00,
  0x73, 0x01, 0x00, 0x00, 0xe2, 0xcf, 0xff, 0xff, 0x0c, 0x00, 0x00, 0x00,
  0x10, 0x00, 0x00, 0x00, 0x0b, 0x00, 0x00, 0x00, 0x01, 0x00, 0x00, 0x00,
  0x73, 0x01, 0x00, 0x00, 0x01, 0x00, 0x00, 0x00, 0x6e, 0x01, 0x00, 0x00,
  0x02, 0xd0, 0xff, 0xff, 0x0c, 0x00, 0x00, 0x00, 0x10, 0x00, 0x00, 0x00,
  0x09, 0x00, 0x00, 0x00, 0x01, 0x00, 0x00, 0x00, 0x72, 0x01, 0x00, 0x00,
  0x01, 0x00, 0x00, 0x00, 0x6f, 0x01, 0x00, 0x00, 0x22, 0xd0, 0xff, 0xff,
  0x0c, 0x00, 0x00, 0x00, 0x10, 0x00, 0x00, 0x00, 0x09, 0x00, 0x00, 0x00,
  0x01, 0x00, 0x00, 0x00, 0x71, 0x01, 0x00, 0x00, 0x01, 0x00, 0x00, 0x00,
  0x6d, 0x01, 0x00, 0x00, 0x42, 0xd0, 0xff, 0xff, 0x0c, 0x00, 0x00, 0x00,
  0x10, 0x00, 0x00, 0x00, 0x09, 0x00, 0x00, 0x00, 0x01, 0x00, 0x00, 0x00,
  0x70, 0x01, 0x00, 0x00, 0x01, 0x00, 0x00, 0x00, 0x6c, 0x01, 0x00, 0x00,
  0x32, 0xd0, 0xff, 0xff, 0x14, 0x00, 0x00, 0x00, 0x00, 0x00, 0x00, 0x23,
  0x14, 0x00, 0x00, 0x00, 0x24, 0x00, 0x00, 0x00, 0x08, 0x00, 0x00, 0x00,
  0xe6, 0xd0, 0xff, 0xff, 0x04, 0x00, 0x00, 0x00, 0x04, 0x00, 0x00, 0x00,
  0x6c, 0x01, 0x00, 0x00, 0x6d, 0x01, 0x00, 0x00, 0x6e, 0x01, 0x00, 0x00,
  0x6f, 0x01, 0x00, 0x00, 0x02, 0x00, 0x00, 0x00, 0x08, 0x00, 0x00, 0x00,
  0x6b, 0x01, 0x00, 0x00, 0x72, 0xd0, 0xff, 0xff, 0x14, 0x00, 0x00, 0x00,
  0x00, 0x00, 0x00, 0x0b, 0x10, 0x00, 0x00, 0x00, 0x14, 0x00, 0x00, 0x00,
  0x07, 0x00, 0x00, 0x00, 0x24, 0x3c, 0xff, 0xff, 0x01, 0x00, 0x00, 0x00,
  0x6b, 0x01, 0x00, 0x00, 0x02, 0x00, 0x00, 0x00, 0x6a, 0x01, 0x00, 0x00,
  0x01, 0x00, 0x00, 0x00, 0xa2, 0xd0, 0xff, 0xff, 0x14, 0x00, 0x00, 0x00,
  0x00, 0x00, 0x00, 0x0b, 0x10, 0x00, 0x00, 0x00, 0x14, 0x00, 0x00, 0x00,
  0x07, 0x00, 0x00, 0x00, 0x54, 0x3c, 0xff, 0xff, 0x01, 0x00, 0x00, 0x00,
  0x6a, 0x01, 0x00, 0x00, 0x02, 0x00, 0x00, 0x00, 0x56, 0x00, 0x00, 0x00,
  0x69, 0x01, 0x00, 0x00, 0xd2, 0xd0, 0xff, 0xff, 0x14, 0x00, 0x00, 0x00,
  0x00, 0x00, 0x00, 0x08, 0x10, 0x00, 0x00, 0x00, 0x14, 0x00, 0x00, 0x00,
  0x06, 0x00, 0x00, 0x00, 0x84, 0x3c, 0xff, 0xff, 0x01, 0x00, 0x00, 0x00,
  0x69, 0x01, 0x00, 0x00, 0x03, 0x00, 0x00, 0x00, 0x68, 0x01, 0x00, 0x00,
  0x09, 0x00, 0x00, 0x00, 0xff, 0xff, 0xff, 0xff, 0x06, 0xd1, 0xff, 0xff,
  0x14, 0x00, 0x00, 0x00, 0x00, 0x00, 0x00, 0x15, 0x10, 0x00, 0x00, 0x00,
  0x14, 0x00, 0x00, 0x00, 0x0a, 0x00, 0x00, 0x00, 0xb8, 0x3c, 0xff, 0xff,
  0x01, 0x00, 0x00, 0x00, 0x68, 0x01, 0x00, 0x00, 0x02, 0x00, 0x00, 0x00,
  0x62, 0x01, 0x00, 0x00, 0x67, 0x01, 0x00, 0x00, 0x66, 0xd1, 0xff, 0xff,
  0x0c, 0x00, 0x00, 0x00, 0x10, 0x00, 0x00, 0x00, 0x0b, 0x00, 0x00, 0x00,
  0x01, 0x00, 0x00, 0x00, 0x67, 0x01, 0x00, 0x00, 0x01, 0x00, 0x00, 0x00,
  0x66, 0x01, 0x00, 0x00, 0x56, 0xd1, 0xff, 0xff, 0x14, 0x00, 0x00, 0x00,
  0x00, 0x00, 0x00, 0x0b, 0x10, 0x00, 0x00, 0x00, 0x14, 0x00, 0x00, 0x00,
  0x07, 0x00, 0x00, 0x00, 0x08, 0x3d, 0xff, 0xff, 0x01, 0x00, 0x00, 0x00,
  0x66, 0x01, 0x00, 0x00, 0x02, 0x00, 0x00, 0x00, 0x65, 0x01, 0x00, 0x00,
  0x64, 0x01, 0x00, 0x00, 0x86, 0xd1, 0xff, 0xff, 0x14, 0x00, 0x00, 0x00,
  0x00, 0x00, 0x00, 0x15, 0x10, 0x00, 0x00, 0x00, 0x14, 0x00, 0x00, 0x00,
  0x0a, 0x00, 0x00, 0x00, 0x38, 0x3d, 0xff, 0xff, 0x01, 0x00, 0x00, 0x00,
  0x65, 0x01, 0x00, 0x00, 0x02, 0x00, 0x00, 0x00, 0x61, 0x01, 0x00, 0x00,
  0x56, 0x01, 0x00, 0x00, 0xb6, 0xd1, 0xff, 0xff, 0x14, 0x00, 0x00, 0x00,
  0x00, 0x00, 0x00, 0x15, 0x10, 0x00, 0x00, 0x00, 0x14, 0x00, 0x00, 0x00,
  0x0a, 0x00, 0x00, 0x00, 0x68, 0x3d, 0xff, 0xff, 0x01, 0x00, 0x00, 0x00,
  0x64, 0x01, 0x00, 0x00, 0x02, 0x00, 0x00, 0x00, 0x60, 0x01, 0x00, 0x00,
  0x63, 0x01, 0x00, 0x00, 0x16, 0xd2, 0xff, 0xff, 0x0c, 0x00, 0x00, 0x00,
  0x10, 0x00, 0x00, 0x00, 0x0b, 0x00, 0x00, 0x00, 0x01, 0x00, 0x00, 0x00,
  0x63, 0x01, 0x00, 0x00, 0x01, 0x00, 0x00, 0x00, 0x5e, 0x01, 0x00, 0x00,
  0x36, 0xd2, 0xff, 0xff, 0x0c, 0x00, 0x00, 0x00, 0x10, 0x00, 0x00, 0x00,
  0x09, 0x00, 0x00, 0x00, 0x01, 0x00, 0x00, 0x00, 0x62, 0x01, 0x00, 0x00,
  0x01, 0x00, 0x00, 0x00, 0x5f, 0x01, 0x00, 0x00, 0x56, 0xd2, 0xff, 0xff,
  0x0c, 0x00, 0x00, 0x00, 0x10, 0x00, 0x00, 0x00, 0x09, 0x00, 0x00, 0x00,
  0x01, 0x00, 0x00, 0x00, 0x61, 0x01, 0x00, 0x00, 0x01, 0x00, 0x00, 0x00,
  0x5d, 0x01, 0x00, 0x00, 0x76, 0xd2, 0xff, 0xff, 0x0c, 0x00, 0x00, 0x00,
  0x10, 0x00, 0x00, 0x00, 0x09, 0x00, 0x00, 0x00, 0x01, 0x00, 0x00, 0x00,
  0x60, 0x01, 0x00, 0x00, 0x01, 0x00, 0x00, 0x00, 0x5c, 0x01, 0x00, 0x00,
  0x66, 0xd2, 0xff, 0xff, 0x14, 0x00, 0x00, 0x00, 0x00, 0x00, 0x00, 0x23,
  0x14, 0x00, 0x00, 0x00, 0x24, 0x00, 0x00, 0x00, 0x08, 0x00, 0x00, 0x00,
  0x1a, 0xd3, 0xff, 0xff, 0x04, 0x00, 0x00, 0x00, 0x04, 0x00, 0x00, 0x00,
  0x5c, 0x01, 0x00, 0x00, 0x5d, 0x01, 0x00, 0x00, 0x5e, 0x01, 0x00, 0x00,
  0x5f, 0x01, 0x00, 0x00, 0x02, 0x00, 0x00, 0x00, 0x08, 0x00, 0x00, 0x00,
  0x5b, 0x01, 0x00, 0x00, 0xa6, 0xd2, 0xff, 0xff, 0x14, 0x00, 0x00, 0x00,
  0x00, 0x00, 0x00, 0x0b, 0x10, 0x00, 0x00, 0x00, 0x14, 0x00, 0x00, 0x00,
  0x07, 0x00, 0x00, 0x00, 0x58, 0x3e, 0xff, 0xff, 0x01, 0x00, 0x00, 0x00,
  0x5b, 0x01, 0x00, 0x00, 0x02, 0x00, 0x00, 0x00, 0x5a, 0x01, 0x00, 0x00,
  0x01, 0x00, 0x00, 0x00, 0xd6, 0xd2, 0xff, 0xff, 0x14, 0x00, 0x00, 0x00,
  0x00, 0x00, 0x00, 0x0b, 0x10, 0x00, 0x00, 0x00, 0x14, 0x00, 0x00, 0x00,
  0x07, 0x00, 0x00, 0x00, 0x88, 0x3e, 0xff, 0xff, 0x01, 0x00, 0x00, 0x00,
  0x5a, 0x01, 0x00, 0x00, 0x02, 0x00, 0x00, 0x00, 0x55, 0x00, 0x00, 0x00,
  0x59, 0x01, 0x00, 0x00, 0x06, 0xd3, 0xff, 0xff, 0x14, 0x00, 0x00, 0x00,
  0x00, 0x00, 0x00, 0x08, 0x10, 0x00, 0x00, 0x00, 0x14, 0x00, 0x00, 0x00,
  0x06, 0x00, 0x00, 0x00, 0xb8, 0x3e, 0xff, 0xff, 0x01, 0x00, 0x00, 0x00,
  0x59, 0x01, 0x00, 0x00, 0x03, 0x00, 0x00, 0x00, 0x58, 0x01, 0x00, 0x00,
  0x09, 0x00, 0x00, 0x00, 0xff, 0xff, 0xff, 0xff, 0x3a, 0xd3, 0xff, 0xff,
  0x14, 0x00, 0x00, 0x00, 0x00, 0x00, 0x00, 0x15, 0x10, 0x00, 0x00, 0x00,
  0x14, 0x00, 0x00, 0x00, 0x0a, 0x00, 0x00, 0x00, 0xec, 0x3e, 0xff, 0xff,
  0x01, 0x00, 0x00, 0x00, 0x58, 0x01, 0x00, 0x00, 0x02, 0x00, 0x00, 0x00,
  0x52, 0x01, 0x00, 0x00, 0x57, 0x01, 0x00, 0x00, 0x9a, 0xd3, 0xff, 0xff,
  0x0c, 0x00, 0x00, 0x00, 0x10, 0x00, 0x00, 0x00, 0x0b, 0x00, 0x00, 0x00,
  0x01, 0x00, 0x00, 0x00, 0x57, 0x01, 0x00, 0x00, 0x01, 0x00, 0x00, 0x00,
  0x56, 0x01, 0x00, 0x00, 0x8a, 0xd3, 0xff, 0xff, 0x14, 0x00, 0x00, 0x00,
  0x00, 0x00, 0x00, 0x0b, 0x10, 0x00, 0x00, 0x00, 0x14, 0x00, 0x00, 0x00,
  0x07, 0x00, 0x00, 0x00, 0x3c, 0x3f, 0xff, 0xff, 0x01, 0x00, 0x00, 0x00,
  0x56, 0x01, 0x00, 0x00, 0x02, 0x00, 0x00, 0x00, 0x55, 0x01, 0x00, 0x00,
  0x54, 0x01, 0x00, 0x00, 0xba, 0xd3, 0xff, 0xff, 0x14, 0x00, 0x00, 0x00,
  0x00, 0x00, 0x00, 0x15, 0x10, 0x00, 0x00, 0x00, 0x14, 0x00, 0x00, 0x00,
  0x0a, 0x00, 0x00, 0x00, 0x6c, 0x3f, 0xff, 0xff, 0x01, 0x00, 0x00, 0x00,
  0x55, 0x01, 0x00, 0x00, 0x02, 0x00, 0x00, 0x00, 0x51, 0x01, 0x00, 0x00,
  0x46, 0x01, 0x00, 0x00, 0xea, 0xd3, 0xff, 0xff, 0x14, 0x00, 0x00, 0x00,
  0x00, 0x00, 0x00, 0x15, 0x10, 0x00, 0x00, 0x00, 0x14, 0x00, 0x00, 0x00,
  0x0a, 0x00, 0x00, 0x00, 0x9c, 0x3f, 0xff, 0xff, 0x01, 0x00, 0x00, 0x00,
  0x54, 0x01, 0x00, 0x00, 0x02, 0x00, 0x00, 0x00, 0x50, 0x01, 0x00, 0x00,
  0x53, 0x01, 0x00, 0x00, 0x4a, 0xd4, 0xff, 0xff, 0x0c, 0x00, 0x00, 0x00,
  0x10, 0x00, 0x00, 0x00, 0x0b, 0x00, 0x00, 0x00, 0x01, 0x00, 0x00, 0x00,
  0x53, 0x01, 0x00, 0x00, 0x01, 0x00, 0x00, 0x00, 0x4e, 0x01, 0x00, 0x00,
  0x6a, 0xd4, 0xff, 0xff, 0x0c, 0x00, 0x00, 0x00, 0x10, 0x00, 0x00, 0x00,
  0x09, 0x00, 0x00, 0x00, 0x01, 0x00, 0x00, 0x00, 0x52, 0x01, 0x00, 0x00,
  0x01, 0x00, 0x00, 0x00, 0x4f, 0x01, 0x00, 0x00, 0x8a, 0xd4, 0xff, 0xff,
  0x0c, 0x00, 0x00, 0x00, 0x10, 0x00, 0x00, 0x00, 0x09, 0x00, 0x00, 0x00,
  0x01, 0x00, 0x00, 0x00, 0x51, 0x01, 0x00, 0x00, 0x01, 0x00, 0x00, 0x00,
  0x4d, 0x01, 0x00, 0x00, 0xaa, 0xd4, 0xff, 0xff, 0x0c, 0x00, 0x00, 0x00,
  0x10, 0x00, 0x00, 0x00, 0x09, 0x00, 0x00, 0x00, 0x01, 0x00, 0x00, 0x00,
  0x50, 0x01, 0x00, 0x00, 0x01, 0x00, 0x00, 0x00, 0x4c, 0x01, 0x00, 0x00,
  0x9a, 0xd4, 0xff, 0xff, 0x14, 0x00, 0x00, 0x00, 0x00, 0x00, 0x00, 0x23,
  0x14, 0x00, 0x00, 0x00, 0x24, 0x00, 0x00, 0x00, 0x08, 0x00, 0x00, 0x00,
  0x4e, 0xd5, 0xff, 0xff, 0x04, 0x00, 0x00, 0x00, 0x04, 0x00, 0x00, 0x00,
  0x4c, 0x01, 0x00, 0x00, 0x4d, 0x01, 0x00, 0x00, 0x4e, 0x01, 0x00, 0x00,
  0x4f, 0x01, 0x00, 0x00, 0x02, 0x00, 0x00, 0x00, 0x08, 0x00, 0x00, 0x00,
  0x4b, 0x01, 0x00, 0x00, 0xda, 0xd4, 0xff, 0xff, 0x14, 0x00, 0x00, 0x00,
  0x00, 0x00, 0x00, 0x0b, 0x10, 0x00, 0x00, 0x00, 0x14, 0x00, 0x00, 0x00,
  0x07, 0x00, 0x00, 0x00, 0x8c, 0x40, 0xff, 0xff, 0x01, 0x00, 0x00, 0x00,
  0x4b, 0x01, 0x00, 0x00, 0x02, 0x00, 0x00, 0x00, 0x4a, 0x01, 0x00, 0x00,
  0x01, 0x00, 0x00, 0x00, 0x0a, 0xd5, 0xff, 0xff, 0x14, 0x00, 0x00, 0x00,
  0x00, 0x00, 0x00, 0x0b, 0x10, 0x00, 0x00, 0x00, 0x14, 0x00, 0x00, 0x00,
  0x07, 0x00, 0x00, 0x00, 0xbc, 0x40, 0xff, 0xff, 0x01, 0x00, 0x00, 0x00,
  0x4a, 0x01, 0x00, 0x00, 0x02, 0x00, 0x00, 0x00, 0x54, 0x00, 0x00, 0x00,
  0x49, 0x01, 0x00, 0x00, 0x3a, 0xd5, 0xff, 0xff, 0x14, 0x00, 0x00, 0x00,
  0x00, 0x00, 0x00, 0x08, 0x10, 0x00, 0x00, 0x00, 0x14, 0x00, 0x00, 0x00,
  0x06, 0x00, 0x00, 0x00, 0xec, 0x40, 0xff, 0xff, 0x01, 0x00, 0x00, 0x00,
  0x49, 0x01, 0x00, 0x00, 0x03, 0x00, 0x00, 0x00, 0x48, 0x01, 0x00, 0x00,
  0x09, 0x00, 0x00, 0x00, 0xff, 0xff, 0xff, 0xff, 0x6e, 0xd5, 0xff, 0xff,
  0x14, 0x00, 0x00, 0x00, 0x00, 0x00, 0x00, 0x15, 0x10, 0x00, 0x00, 0x00,
  0x14, 0x00, 0x00, 0x00, 0x0a, 0x00, 0x00, 0x00, 0x20, 0x41, 0xff, 0xff,
  0x01, 0x00, 0x00, 0x00, 0x48, 0x01, 0x00, 0x00, 0x02, 0x00, 0x00, 0x00,
  0x42, 0x01, 0x00, 0x00, 0x47, 0x01, 0x00, 0x00, 0xce, 0xd5, 0xff, 0xff,
  0x0c, 0x00, 0x00, 0x00, 0x10, 0x00, 0x00, 0x00, 0x0b, 0x00, 0x00, 0x00,
  0x01, 0x00, 0x00, 0x00, 0x47, 0x01, 0x00, 0x00, 0x01, 0x00, 0x00, 0x00,
  0x46, 0x01, 0x00, 0x00, 0xbe, 0xd5, 0xff, 0xff, 0x14, 0x00, 0x00, 0x00,
  0x00, 0x00, 0x00, 0x0b, 0x10, 0x00, 0x00, 0x00, 0x14, 0x00, 0x00, 0x00,
  0x07, 0x00, 0x00, 0x00, 0x70, 0x41, 0xff, 0xff, 0x01, 0x00, 0x00, 0x00,
  0x46, 0x01, 0x00, 0x00, 0x02, 0x00, 0x00, 0x00, 0x45, 0x01, 0x00, 0x00,
  0x44, 0x01, 0x00, 0x00, 0xee, 0xd5, 0xff, 0xff, 0x14, 0x00, 0x00, 0x00,
  0x00, 0x00, 0x00, 0x15, 0x10, 0x00, 0x00, 0x00, 0x14, 0x00, 0x00, 0x00,
  0x0a, 0x00, 0x00, 0x00, 0xa0, 0x41, 0xff, 0xff, 0x01, 0x00, 0x00, 0x00,
  0x45, 0x01, 0x00, 0x00, 0x02, 0x00, 0x00, 0x00, 0x41, 0x01, 0x00, 0x00,
  0x36, 0x01, 0x00, 0x00, 0x1e, 0xd6, 0xff, 0xff, 0x14, 0x00, 0x00, 0x00,
  0x00, 0x00, 0x00, 0x15, 0x10, 0x00, 0x00, 0x00, 0x14, 0x00, 0x00, 0x00,
  0x0a, 0x00, 0x00, 0x00, 0xd0, 0x41, 0xff, 0xff, 0x01, 0x00, 0x00, 0x00,
  0x44, 0x01, 0x00, 0x00, 0x02, 0x00, 0x00, 0x00, 0x40, 0x01, 0x00, 0x00,
  0x43, 0x01, 0x00, 0x00, 0x7e, 0xd6, 0xff, 0xff, 0x0c, 0x00, 0x00, 0x00,
  0x10, 0x00, 0x00, 0x00, 0x0b, 0x00, 0x00, 0x00, 0x01, 0x00, 0x00, 0x00,
  0x43, 0x01, 0x00, 0x00, 0x01, 0x00, 0x00, 0x00, 0x3e, 0x01, 0x00, 0x00,
  0x9e, 0xd6, 0xff, 0xff, 0x0c, 0x00, 0x00, 0x00, 0x10, 0x00, 0x00, 0x00,
  0x09, 0x00, 0x00, 0x00, 0x01, 0x00, 0x00, 0x00, 0x42, 0x01, 0x00, 0x00,
  0x01, 0x00, 0x00, 0x00, 0x3f, 0x01, 0x00, 0x00, 0xbe, 0xd6, 0xff, 0xff,
  0x0c, 0x00, 0x00, 0x00, 0x10, 0x00, 0x00, 0x00, 0x09, 0x00, 0x00, 0x00,
  0x01, 0x00, 0x00, 0x00, 0x41, 0x01, 0x00, 0x00, 0x01, 0x00, 0x00, 0x00,
  0x3d, 0x01, 0x00, 0x00, 0xde, 0xd6, 0xff, 0xff, 0x0c, 0x00, 0x00, 0x00,
  0x10, 0x00, 0x00, 0x00, 0x09, 0x00, 0x00, 0x00, 0x01, 0x00, 0x00, 0x00,
  0x40, 0x01, 0x00, 0x00, 0x01, 0x00, 0x00, 0x00, 0x3c, 0x01, 0x00, 0x00,
  0xce, 0xd6, 0xff, 0xff, 0x14, 0x00, 0x00, 0x00, 0x00, 0x00, 0x00, 0x23,
  0x14, 0x00, 0x00, 0x00, 0x24, 0x00, 0x00, 0x00, 0x08, 0x00, 0x00, 0x00,
  0x82, 0xd7, 0xff, 0xff, 0x04, 0x00, 0x00, 0x00, 0x04, 0x00, 0x00, 0x00,
  0x3c, 0x01, 0x00, 0x00, 0x3d, 0x01, 0x00, 0x00, 0x3e, 0x01, 0x00, 0x00,
  0x3f, 0x01, 0x00, 0x00, 0x02, 0x00, 0x00, 0x00, 0x08, 0x00, 0x00, 0x00,
  0x3b, 0x01, 0x00, 0x00, 0x0e, 0xd7, 0xff, 0xff, 0x14, 0x00, 0x00, 0x00,
  0x00, 0x00, 0x00, 0x0b, 0x10, 0x00, 0x00, 0x00, 0x14, 0x00, 0x00, 0x00,
  0x07, 0x00, 0x00, 0x00, 0xc0, 0x42, 0xff, 0xff, 0x01, 0x00, 0x00, 0x00,
  0x3b, 0x01, 0x00, 0x00, 0x02, 0x00, 0x00, 0x00, 0x3a, 0x01, 0x00, 0x00,
  0x01, 0x00, 0x00, 0x00, 0x3e, 0xd7, 0xff, 0xff, 0x14, 0x00, 0x00, 0x00,
  0x00, 0x00, 0x00, 0x0b, 0x10, 0x00, 0x00, 0x00, 0x14, 0x00, 0x00, 0x00,
  0x07, 0x00, 0x00, 0x00, 0xf0, 0x42, 0xff, 0xff, 0x01, 0x00, 0x00, 0x00,
  0x3a, 0x01, 0x00, 0x00, 0x02, 0x00, 0x00, 0x00, 0x53, 0x00, 0x00, 0x00,
  0x39, 0x01, 0x00, 0x00, 0x6e, 0xd7, 0xff, 0xff, 0x14, 0x00, 0x00, 0x00,
  0x00, 0x00, 0x00, 0x08, 0x10, 0x00, 0x00, 0x00, 0x14, 0x00, 0x00, 0x00,
  0x06, 0x00, 0x00, 0x00, 0x20, 0x43, 0xff, 0xff, 0x01, 0x00, 0x00, 0x00,
  0x39, 0x01, 0x00, 0x00, 0x03, 0x00, 0x00, 0x00, 0x38, 0x01, 0x00, 0x00,
  0x09, 0x00, 0x00, 0x00, 0xff, 0xff, 0xff, 0xff, 0xa2, 0xd7, 0xff, 0xff,
  0x14, 0x00, 0x00, 0x00, 0x00, 0x00, 0x00, 0x15, 0x10, 0x00, 0x00, 0x00,
  0x14, 0x00, 0x00, 0x00, 0x0a, 0x00, 0x00, 0x00, 0x54, 0x43, 0xff, 0xff,
  0x01, 0x00, 0x00, 0x00, 0x38, 0x01, 0x00, 0x00, 0x02, 0x00, 0x00, 0x00,
  0x32, 0x01, 0x00, 0x00, 0x37, 0x01, 0x00, 0x00, 0x02, 0xd8, 0xff, 0xff,
  0x0c, 0x00, 0x00, 0x00, 0x10, 0x00, 0x00, 0x00, 0x0b, 0x00, 0x00, 0x00,
  0x01, 0x00, 0x00, 0x00, 0x37, 0x01, 0x00, 0x00, 0x01, 0x00, 0x00, 0x00,
  0x36, 0x01, 0x00, 0x00, 0xf2, 0xd7, 0xff, 0xff, 0x14, 0x00, 0x00, 0x00,
  0x00, 0x00, 0x00, 0x0b, 0x10, 0x00, 0x00, 0x00, 0x14, 0x00, 0x00, 0x00,
  0x07, 0x00, 0x00, 0x00, 0xa4, 0x43, 0xff, 0xff, 0x01, 0x00, 0x00, 0x00,
  0x36, 0x01, 0x00, 0x00, 0x02, 0x00, 0x00, 0x00, 0x35, 0x01, 0x00, 0x00,
  0x34, 0x01, 0x00, 0x00, 0x22, 0xd8, 0xff, 0xff, 0x14, 0x00, 0x00, 0x00,
  0x00, 0x00, 0x00, 0x15, 0x10, 0x00, 0x00, 0x00, 0x14, 0x00, 0x00, 0x00,
  0x0a, 0x00, 0x00, 0x00, 0xd4, 0x43, 0xff, 0xff, 0x01, 0x00, 0x00, 0x00,
  0x35, 0x01, 0x00, 0x00, 0x02, 0x00, 0x00, 0x00, 0x31, 0x01, 0x00, 0x00,
  0x26, 0x01, 0x00, 0x00, 0x52, 0xd8, 0xff, 0xff, 0x14, 0x00, 0x00, 0x00,
  0x00, 0x00, 0x00, 0x15, 0x10, 0x00, 0x00, 0x00, 0x14, 0x00, 0x00, 0x00,
  0x0a, 0x00, 0x00, 0x00, 0x04, 0x44, 0xff, 0xff, 0x01, 0x00, 0x00, 0x00,
  0x34, 0x01, 0x00, 0x00, 0x02, 0x00, 0x00, 0x00, 0x30, 0x01, 0x00, 0x00,
  0x33, 0x01, 0x00, 0x00, 0xb2, 0xd8, 0xff, 0xff, 0x0c, 0x00, 0x00, 0x00,
  0x10, 0x00, 0x00, 0x00, 0x0b, 0x00, 0x00, 0x00, 0x01, 0x00, 0x00, 0x00,
  0x33, 0x01, 0x00, 0x00, 0x01, 0x00, 0x00, 0x00, 0x2e, 0x01, 0x00, 0x00,
  0xd2, 0xd8, 0xff, 0xff, 0x0c, 0x00, 0x00, 0x00, 0x10, 0x00, 0x00, 0x00,
  0x09, 0x00, 0x00, 0x00, 0x01, 0x00, 0x00, 0x00, 0x32, 0x01, 0x00, 0x00,
  0x01, 0x00, 0x00, 0x00, 0x2f, 0x01, 0x00, 0x00, 0xf2, 0xd8, 0xff, 0xff,
  0x0c, 0x00, 0x00, 0x00, 0x10, 0x00, 0x00, 0x00, 0x09, 0x00, 0x00, 0x00,
  0x01, 0x00, 0x00, 0x00, 0x31, 0x01, 0x00, 0x00, 0x01, 0x00, 0x00, 0x00,
  0x2d, 0x01, 0x00, 0x00, 0x12, 0xd9, 0xff, 0xff, 0x0c, 0x00, 0x00, 0x00,
  0x10, 0x00, 0x00, 0x00, 0x09, 0x00, 0x00, 0x00, 0x01, 0x00, 0x00, 0x00,
  0x30, 0x01, 0x00, 0x00, 0x01, 0x00, 0x00, 0x00, 0x2c, 0x01, 0x00, 0x00,
  0x02, 0xd9, 0xff, 0xff, 0x14, 0x00, 0x00, 0x00, 0x00, 0x00, 0x00, 0x23,
  0x14, 0x00, 0x00, 0x00, 0x24, 0x00, 0x00, 0x00, 0x08, 0x00, 0x00, 0x00,
  0xb6, 0xd9, 0xff, 0xff, 0x04, 0x00, 0x00, 0x00, 0x04, 0x00, 0x00, 0x00,
  0x2c, 0x01, 0x00, 0x00, 0x2d, 0x01, 0x00, 0x00, 0x2e, 0x01, 0x00, 0x00,
  0x2f, 0x01, 0x00, 0x00, 0x02, 0x00, 0x00, 0x00, 0x08, 0x00, 0x00, 0x00,
  0x2b, 0x01, 0x00, 0x00, 0x42, 0xd9, 0xff, 0xff, 0x14, 0x00, 0x00, 0x00,
  0x00, 0x00, 0x00, 0x0b, 0x10, 0x00, 0x00, 0x00, 0x14, 0x00, 0x00, 0x00,
  0x07, 0x00, 0x00, 0x00, 0xf4, 0x44, 0xff, 0xff, 0x01, 0x00, 0x00, 0x00,
  0x2b, 0x01, 0x00, 0x00, 0x02, 0x00, 0x00, 0x00, 0x2a, 0x01, 0x00, 0x00,
  0x01, 0x00, 0x00, 0x00, 0x72, 0xd9, 0xff, 0xff, 0x14, 0x00, 0x00, 0x00,
  0x00, 0x00, 0x00, 0x0b, 0x10, 0x00, 0x00, 0x00, 0x14, 0x00, 0x00, 0x00,
  0x07, 0x00, 0x00, 0x00, 0x24, 0x45, 0xff, 0xff, 0x01, 0x00, 0x00, 0x00,
  0x2a, 0x01, 0x00, 0x00, 0x02, 0x00, 0x00, 0x00, 0x52, 0x00, 0x00, 0x00,
  0x29, 0x01, 0x00, 0x00, 0xa2, 0xd9, 0xff, 0xff, 0x14, 0x00, 0x00, 0x00,
  0x00, 0x00, 0x00, 0x08, 0x10, 0x00, 0x00, 0x00, 0x14, 0x00, 0x00, 0x00,
  0x06, 0x00, 0x00, 0x00, 0x54, 0x45, 0xff, 0xff, 0x01, 0x00, 0x00, 0x00,
  0x29, 0x01, 0x00, 0x00, 0x03, 0x00, 0x00, 0x00, 0x28, 0x01, 0x00, 0x00,
  0x09, 0x00, 0x00, 0x00, 0xff, 0xff, 0xff, 0xff, 0xd6, 0xd9, 0xff, 0xff,
